{
  "version": "1.0",
  "truncation": null,
  "padding": null,
  "added_tokens": [
    {
      "id": 0,
      "special": true,
      "content": "[UNK]",
      "single_word": false,
      "lstrip": false,
      "rstrip": false,
      "normalized": false
    },
    {
      "id": 1,
      "special": true,
      "content": "[CLS]",
      "single_word": false,
      "lstrip": false,
      "rstrip": false,
      "normalized": false
    },
    {
      "id": 2,
      "special": true,
      "content": "[SEP]",
      "single_word": false,
      "lstrip": false,
      "rstrip": false,
      "normalized": false
    },
    {
      "id": 3,
      "special": true,
      "content": "[PAD]",
      "single_word": false,
      "lstrip": false,
      "rstrip": false,
      "normalized": false
    },
    {
      "id": 4,
      "special": true,
      "content": "[MASK]",
      "single_word": false,
      "lstrip": false,
      "rstrip": false,
      "normalized": false
    }
  ],
  "normalizer": null,
  "pre_tokenizer": {
    "type": "Whitespace"
  },
  "post_processor": null,
  "decoder": null,
  "model": {
    "type": "BPE",
    "dropout": null,
    "unk_token": "[UNK]",
    "continuing_subword_prefix": null,
    "end_of_word_suffix": null,
    "fuse_unk": false,
    "vocab": {
      "[UNK]": 0,
      "[CLS]": 1,
      "[SEP]": 2,
      "[PAD]": 3,
      "[MASK]": 4,
      "!": 5,
      "\"": 6,
      "#": 7,
      "$": 8,
      "%": 9,
      "&": 10,
      "(": 11,
      ")": 12,
      "*": 13,
      "+": 14,
      ",": 15,
      "-": 16,
      ".": 17,
      "/": 18,
      "0": 19,
      "1": 20,
      "2": 21,
      "3": 22,
      "4": 23,
      "5": 24,
      "6": 25,
      "7": 26,
      "8": 27,
      "9": 28,
      ":": 29,
      ";": 30,
      "<": 31,
      "=": 32,
      ">": 33,
      "?": 34,
      "@": 35,
      "A": 36,
      "B": 37,
      "C": 38,
      "D": 39,
      "E": 40,
      "F": 41,
      "G": 42,
      "H": 43,
      "I": 44,
      "J": 45,
      "K": 46,
      "L": 47,
      "M": 48,
      "N": 49,
      "O": 50,
      "P": 51,
      "Q": 52,
      "R": 53,
      "S": 54,
      "T": 55,
      "U": 56,
      "V": 57,
      "W": 58,
      "X": 59,
      "Y": 60,
      "Z": 61,
      "[": 62,
      "\\": 63,
      "]": 64,
      "^": 65,
      "_": 66,
      "`": 67,
      "a": 68,
      "b": 69,
      "c": 70,
      "d": 71,
      "e": 72,
      "f": 73,
      "g": 74,
      "h": 75,
      "i": 76,
      "j": 77,
      "k": 78,
      "l": 79,
      "m": 80,
      "n": 81,
      "o": 82,
      "p": 83,
      "q": 84,
      "r": 85,
      "s": 86,
      "t": 87,
      "u": 88,
      "v": 89,
      "w": 90,
      "x": 91,
      "y": 92,
      "z": 93,
      "{": 94,
      "|": 95,
      "}": 96,
      "~": 97,
      "¡": 98,
      "¿": 99,
      "À": 100,
      "Á": 101,
      "Ä": 102,
      "É": 103,
      "Í": 104,
      "Ñ": 105,
      "Ò": 106,
      "Ó": 107,
      "Ú": 108,
      "Ü": 109,
      "ß": 110,
      "à": 111,
      "á": 112,
      "ä": 113,
      "è": 114,
      "é": 115,
      "ì": 116,
      "í": 117,
      "ñ": 118,
      "ò": 119,
      "ó": 120,
      "ö": 121,
      "ù": 122,
      "ú": 123,
      "ü": 124,
      "–": 125,
      "—": 126,
      "‘": 127,
      "’": 128,
      "“": 129,
      "”": 130,
      "•": 131,
      "…": 132,
      "™": 133,
      "♥": 134,
      "♦": 135,
      "th": 136,
      "in": 137,
      "er": 138,
      "on": 139,
      "an": 140,
      "is": 141,
      "the": 142,
      "re": 143,
      "it": 144,
      "en": 145,
      "ou": 146,
      "or": 147,
      "at": 148,
      "\":": 149,
      "le": 150,
      "st": 151,
      "ing": 152,
      "and": 153,
      "to": 154,
      "al": 155,
      "be": 156,
      "as": 157,
      "ed": 158,
      "ar": 159,
      "of": 160,
      "es": 161,
      "ent": 162,
      "la": 163,
      "oo": 164,
      "ly": 165,
      "ic": 166,
      "ve": 167,
      "he": 168,
      "con": 169,
      "om": 170,
      "se": 171,
      "ad": 172,
      "this": 173,
      "no": 174,
      "cont": 175,
      "ch": 176,
      "bel": 177,
      "ver": 178,
      "tit": 179,
      "\",": 180,
      "title": 181,
      "content": 182,
      "label": 183,
      "\"}": 184,
      "{\"": 185,
      "for": 186,
      "ll": 187,
      "ut": 188,
      "ct": 189,
      "ook": 190,
      "wh": 191,
      "wi": 192,
      "me": 193,
      "ion": 194,
      "you": 195,
      "mo": 196,
      "that": 197,
      "gh": 198,
      "ld": 199,
      "was": 200,
      ".\"}": 201,
      "li": 202,
      "ha": 203,
      "ow": 204,
      "book": 205,
      "one": 206,
      "id": 207,
      "..": 208,
      "The": 209,
      "ke": 210,
      "ie": 211,
      "ter": 212,
      "ay": 213,
      "ge": 214,
      "ro": 215,
      "with": 216,
      "ab": 217,
      "are": 218,
      "ce": 219,
      "his": 220,
      "un": 221,
      "not": 222,
      "out": 223,
      "ther": 224,
      "lo": 225,
      "but": 226,
      "ri": 227,
      "so": 228,
      "have": 229,
      "ir": 230,
      "all": 231,
      "us": 232,
      "ne": 233,
      "ould": 234,
      "am": 235,
      "com": 236,
      "ck": 237,
      "\\\"": 238,
      "my": 239,
      "pe": 240,
      "ght": 241,
      "ur": 242,
      "ti": 243,
      "ap": 244,
      "vie": 245,
      "ust": 246,
      "de": 247,
      "fe": 248,
      "ma": 249,
      "read": 250,
      "we": 251,
      "wor": 252,
      "very": 253,
      "ex": 254,
      "ul": 255,
      "ally": 256,
      "It": 257,
      "This": 258,
      "if": 259,
      "po": 260,
      "tr": 261,
      "act": 262,
      "ood": 263,
      "ome": 264,
      "il": 265,
      "do": 266,
      "reat": 267,
      "ere": 268,
      "sh": 269,
      "um": 270,
      "up": 271,
      "pro": 272,
      "end": 273,
      "ers": 274,
      "nd": 275,
      "any": 276,
      "like": 277,
      "te": 278,
      "!!": 279,
      "ant": 280,
      "fr": 281,
      "go": 282,
      "im": 283,
      "thing": 284,
      "ong": 285,
      "op": 286,
      "ta": 287,
      "movie": 288,
      "some": 289,
      "au": 290,
      "qu": 291,
      "can": 292,
      "ss": 293,
      "good": 294,
      "get": 295,
      "just": 296,
      "ag": 297,
      "ure": 298,
      "art": 299,
      "from": 300,
      "ist": 301,
      "pla": 302,
      "ound": 303,
      "would": 304,
      "great": 305,
      "other": 306,
      "about": 307,
      "int": 308,
      "ation": 309,
      "ind": 310,
      "ack": 311,
      "has": 312,
      "they": 313,
      "ard": 314,
      "ough": 315,
      "ive": 316,
      "der": 317,
      "co": 318,
      "ies": 319,
      "ice": 320,
      "ig": 321,
      "ate": 322,
      "ast": 323,
      "by": 324,
      "pre": 325,
      "ven": 326,
      "ite": 327,
      "ble": 328,
      "way": 329,
      "more": 330,
      "...": 331,
      "time": 332,
      "now": 333,
      "ory": 334,
      "had": 335,
      "uch": 336,
      "who": 337,
      "dis": 338,
      "sa": 339,
      "Th": 340,
      "will": 341,
      "able": 342,
      "work": 343,
      "ill": 344,
      "el": 345,
      "what": 346,
      "ear": 347,
      "per": 348,
      "her": 349,
      "du": 350,
      "see": 351,
      "pr": 352,
      "bo": 353,
      "our": 354,
      "ous": 355,
      "ine": 356,
      "itt": 357,
      "your": 358,
      "ity": 359,
      "ple": 360,
      "wr": 361,
      "uy": 362,
      "did": 363,
      "ought": 364,
      "ment": 365,
      "only": 366,
      "est": 367,
      "own": 368,
      "ain": 369,
      "ful": 370,
      "gr": 371,
      "ess": 372,
      "sc": 373,
      "ever": 374,
      "et": 375,
      "ink": 376,
      "ot": 377,
      "than": 378,
      "when": 379,
      "ide": 380,
      "Wh": 381,
      "really": 382,
      "them": 383,
      "irst": 384,
      "av": 385,
      "too": 386,
      "ass": 387,
      "ac": 388,
      "there": 389,
      "cau": 390,
      "bum": 391,
      "bet": 392,
      "ish": 393,
      "jo": 394,
      "don": 395,
      "ich": 396,
      "fo": 397,
      "cause": 398,
      "over": 399,
      "ick": 400,
      "much": 401,
      "su": 402,
      "story": 403,
      "how": 404,
      "!\",": 405,
      "fil": 406,
      "well": 407,
      "does": 408,
      "first": 409,
      "album": 410,
      "di": 411,
      "cl": 412,
      "char": 413,
      "view": 414,
      "most": 415,
      "even": 416,
      "could": 417,
      "ep": 418,
      "point": 419,
      "atch": 420,
      "fter": 421,
      "old": 422,
      "because": 423,
      "If": 424,
      "look": 425,
      "year": 426,
      "pt": 427,
      "ight": 428,
      "man": 429,
      "were": 430,
      "!\"}": 431,
      "ved": 432,
      "think": 433,
      "lot": 434,
      "sp": 435,
      "buy": 436,
      "love": 437,
      "age": 438,
      "want": 439,
      "produ": 440,
      "play": 441,
      "been": 442,
      "TH": 443,
      "ame": 444,
      "know": 445,
      "pp": 446,
      "ort": 447,
      "comm": 448,
      "film": 449,
      "less": 450,
      "every": 451,
      "ser": 452,
      "ci": 453,
      "ile": 454,
      "ty": 455,
      "ra": 456,
      "ction": 457,
      "tw": 458,
      "ase": 459,
      "use": 460,
      "song": 461,
      "off": 462,
      "which": 463,
      "its": 464,
      "usic": 465,
      "inter": 466,
      "back": 467,
      "better": 468,
      "best": 469,
      "ade": 470,
      "des": 471,
      "day": 472,
      "she": 473,
      "lf": 474,
      "their": 475,
      "music": 476,
      "charact": 477,
      "new": 478,
      "nt": 479,
      "ol": 480,
      "fin": 481,
      "ans": 482,
      "thr": 483,
      "ue": 484,
      "fer": 485,
      "kes": 486,
      "ves": 487,
      "these": 488,
      "say": 489,
      "urn": 490,
      "after": 491,
      "ms": 492,
      "into": 493,
      "In": 494,
      "ittle": 495,
      "ious": 496,
      "hi": 497,
      "CD": 498,
      "fun": 499,
      "ach": 500,
      "joy": 501,
      "self": 502,
      "br": 503,
      "put": 504,
      "vers": 505,
      "product": 506,
      "many": 507,
      "commend": 508,
      "watch": 509,
      "ated": 510,
      "make": 511,
      "iz": 512,
      "ople": 513,
      "review": 514,
      "ry": 515,
      "then": 516,
      "got": 517,
      "books": 518,
      "ence": 519,
      "vel": 520,
      "ict": 521,
      "ak": 522,
      "recommend": 523,
      "little": 524,
      "should": 525,
      "won": 526,
      "str": 527,
      "ary": 528,
      "led": 529,
      "bad": 530,
      "people": 531,
      "sound": 532,
      "appoint": 533,
      "bl": 534,
      "ality": 535,
      "pect": 536,
      "cor": 537,
      "ire": 538,
      "never": 539,
      "pl": 540,
      "enjoy": 541,
      "ting": 542,
      "also": 543,
      "part": 544,
      "ving": 545,
      "ical": 546,
      "ens": 547,
      "find": 548,
      "ph": 549,
      "made": 550,
      "oney": 551,
      "My": 552,
      "gu": 553,
      "try": 554,
      "Re": 555,
      "bought": 556,
      "mes": 557,
      "fore": 558,
      "ber": 559,
      "ud": 560,
      "need": 561,
      "ER": 562,
      "still": 563,
      "fa": 564,
      "ree": 565,
      "reading": 566,
      "through": 567,
      "dif": 568,
      "ars": 569,
      "Ch": 570,
      "DV": 571,
      "list": 572,
      "pur": 573,
      "set": 574,
      "real": 575,
      "two": 576,
      "ased": 577,
      "stand": 578,
      "ste": 579,
      "We": 580,
      "turn": 581,
      "DVD": 582,
      "00": 583,
      "He": 584,
      "years": 585,
      "But": 586,
      "money": 587,
      "ps": 588,
      "ition": 589,
      "IN": 590,
      "che": 591,
      "again": 592,
      "fect": 593,
      ".\",": 594,
      "down": 595,
      "form": 596,
      "sing": 597,
      "long": 598,
      "Not": 599,
      "life": 600,
      "--": 601,
      "Great": 602,
      "though": 603,
      "mon": 604,
      "You": 605,
      "interest": 606,
      "king": 607,
      "ance": 608,
      "eas": 609,
      "used": 610,
      "ins": 611,
      "under": 612,
      "where": 613,
      "col": 614,
      "iting": 615,
      "disappoint": 616,
      "ny": 617,
      "ater": 618,
      "sup": 619,
      "There": 620,
      "....": 621,
      "worth": 622,
      "thought": 623,
      "didn": 624,
      "ose": 625,
      "show": 626,
      "mis": 627,
      "found": 628,
      "hard": 629,
      "thor": 630,
      "happ": 631,
      "RE": 632,
      "les": 633,
      "purch": 634,
      "ild": 635,
      "songs": 636,
      "ult": 637,
      "!!!!": 638,
      "az": 639,
      "min": 640,
      "spe": 641,
      "red": 642,
      "ions": 643,
      "ily": 644,
      "feel": 645,
      "ually": 646,
      "times": 647,
      "aw": 648,
      "ave": 649,
      "ces": 650,
      "same": 651,
      "characters": 652,
      "tal": 653,
      "IS": 654,
      "vo": 655,
      "right": 656,
      "AN": 657,
      "tri": 658,
      "start": 659,
      "ON": 660,
      "high": 661,
      "class": 662,
      "ff": 663,
      "hel": 664,
      "cr": 665,
      "quality": 666,
      "lear": 667,
      "ning": 668,
      "And": 669,
      ").": 670,
      "before": 671,
      "ang": 672,
      "ks": 673,
      "him": 674,
      "Al": 675,
      "few": 676,
      "mer": 677,
      "cou": 678,
      "light": 679,
      "ery": 680,
      "something": 681,
      "exce": 682,
      "pers": 683,
      "come": 684,
      "may": 685,
      "Be": 686,
      "ool": 687,
      "ise": 688,
      "ics": 689,
      "low": 690,
      "tain": 691,
      "ho": 692,
      "ating": 693,
      "author": 694,
      "last": 695,
      "another": 696,
      "differ": 697,
      "cent": 698,
      "listen": 699,
      "bor": 700,
      "comp": 701,
      "ince": 702,
      "St": 703,
      "ds": 704,
      "sim": 705,
      "sm": 706,
      "series": 707,
      "med": 708,
      "let": 709,
      "No": 710,
      "port": 711,
      "ason": 712,
      "They": 713,
      "THE": 714,
      "ng": 715,
      "pa": 716,
      "wonder": 717,
      "gi": 718,
      "going": 719,
      "dy": 720,
      "ors": 721,
      "What": 722,
      "NO": 723,
      "fav": 724,
      "fan": 725,
      "itten": 726,
      "wast": 727,
      "ip": 728,
      "give": 729,
      "ual": 730,
      "those": 731,
      "proble": 732,
      "must": 733,
      "ways": 734,
      "being": 735,
      "plot": 736,
      "llent": 737,
      "novel": 738,
      "version": 739,
      "So": 740,
      "doesn": 741,
      "here": 742,
      "expect": 743,
      "order": 744,
      "res": 745,
      "ST": 746,
      "fort": 747,
      "band": 748,
      "while": 749,
      "cre": 750,
      "ext": 751,
      "orig": 752,
      "cri": 753,
      "How": 754,
      "written": 755,
      "belie": 756,
      "take": 757,
      "fact": 758,
      "ob": 759,
      "ull": 760,
      "cal": 761,
      "ial": 762,
      "makes": 763,
      "origin": 764,
      "such": 765,
      "bit": 766,
      "atter": 767,
      "bab": 768,
      "favor": 769,
      "hand": 770,
      "track": 771,
      "ix": 772,
      "add": 773,
      "ug": 774,
      "son": 775,
      "comple": 776,
      "od": 777,
      "ced": 778,
      "riend": 779,
      "gin": 780,
      "ef": 781,
      "mar": 782,
      "ute": 783,
      "keep": 784,
      "child": 785,
      "maz": 786,
      "ations": 787,
      "rible": 788,
      "different": 789,
      "cord": 790,
      "Amaz": 791,
      "far": 792,
      "mov": 793,
      "tell": 794,
      "AT": 795,
      "cer": 796,
      "ages": 797,
      "As": 798,
      "help": 799,
      "enough": 800,
      "dr": 801,
      "big": 802,
      "Mo": 803,
      "For": 804,
      "ster": 805,
      "ign": 806,
      "sent": 807,
      "anyone": 808,
      "looking": 809,
      "cond": 810,
      "lack": 811,
      "ings": 812,
      "place": 813,
      "pret": 814,
      "cover": 815,
      "ren": 816,
      "hor": 817,
      "Don": 818,
      "movies": 819,
      "De": 820,
      "gen": 821,
      "ash": 822,
      "ature": 823,
      "since": 824,
      "sur": 825,
      "top": 826,
      "ked": 827,
      "interesting": 828,
      "nothing": 829,
      "An": 830,
      "price": 831,
      "why": 832,
      "press": 833,
      "line": 834,
      "pos": 835,
      "Good": 836,
      "pie": 837,
      "OR": 838,
      "ts": 839,
      "friend": 840,
      "ense": 841,
      "person": 842,
      "without": 843,
      "car": 844,
      "original": 845,
      "fl": 846,
      "waste": 847,
      "came": 848,
      "ian": 849,
      "using": 850,
      "vent": 851,
      "IT": 852,
      "AL": 853,
      "sol": 854,
      "aut": 855,
      "Amazon": 856,
      "easy": 857,
      "game": 858,
      "fam": 859,
      "wa": 860,
      "stu": 861,
      "vide": 862,
      "scen": 863,
      "19": 864,
      "war": 865,
      "em": 866,
      "mem": 867,
      "ia": 868,
      "seen": 869,
      "disappointed": 870,
      "ately": 871,
      "character": 872,
      "pict": 873,
      "Chr": 874,
      "cess": 875,
      "10": 876,
      "nice": 877,
      "ange": 878,
      "around": 879,
      "ible": 880,
      "month": 881,
      "sure": 882,
      "always": 883,
      "world": 884,
      "things": 885,
      "sub": 886,
      "OU": 887,
      "kid": 888,
      "rele": 889,
      "colle": 890,
      "reviews": 891,
      "writing": 892,
      "works": 893,
      "actually": 894,
      "io": 895,
      "\".": 896,
      "understand": 897,
      "hist": 898,
      "ize": 899,
      "Lo": 900,
      "hum": 901,
      "away": 902,
      "ft": 903,
      "head": 904,
      "ith": 905,
      "When": 906,
      "poor": 907,
      "complete": 908,
      "Un": 909,
      "sty": 910,
      "One": 911,
      "sy": 912,
      "clo": 913,
      "stars": 914,
      "ative": 915,
      "Do": 916,
      "mag": 917,
      "llow": 918,
      "amaz": 919,
      "boring": 920,
      "wonderful": 921,
      "mind": 922,
      "peri": 923,
      "),": 924,
      "cial": 925,
      "picture": 926,
      "ones": 927,
      "rece": 928,
      "pretty": 929,
      "both": 930,
      "cd": 931,
      "excellent": 932,
      "favorite": 933,
      "anything": 934,
      "care": 935,
      "defin": 936,
      "Very": 937,
      "kind": 938,
      "iter": 939,
      "ward": 940,
      "ten": 941,
      "video": 942,
      "record": 943,
      "small": 944,
      "ped": 945,
      "Br": 946,
      "Jo": 947,
      "loved": 948,
      "All": 949,
      "...\",": 950,
      "xt": 951,
      "NOT": 952,
      "ular": 953,
      "descri": 954,
      "ner": 955,
      "perfect": 956,
      "return": 957,
      "sk": 958,
      "whole": 959,
      "Ro": 960,
      "done": 961,
      "seems": 962,
      "almost": 963,
      "cop": 964,
      "ark": 965,
      "She": 966,
      "each": 967,
      "ath": 968,
      "reason": 969,
      "Wor": 970,
      "said": 971,
      "log": 972,
      "rect": 973,
      "vice": 974,
      "uck": 975,
      "ese": 976,
      "wee": 977,
      "tra": 978,
      "stead": 979,
      "vious": 980,
      "lan": 981,
      "ING": 982,
      "classic": 983,
      "je": 984,
      "EN": 985,
      "iful": 986,
      ".\"": 987,
      "quite": 988,
      "ower": 989,
      "On": 990,
      "bro": 991,
      "sto": 992,
      "bre": 993,
      "star": 994,
      "??": 995,
      "cur": 996,
      "fic": 997,
      "problem": 998,
      "ories": 999,
      "purchased": 1000,
      "ending": 1001,
      "yet": 1002,
      "cons": 1003,
      "inform": 1004,
      "cle": 1005,
      "After": 1006,
      "reg": 1007,
      "beaut": 1008,
      "ready": 1009,
      "rel": 1010,
      "cut": 1011,
      "However": 1012,
      "rom": 1013,
      "ons": 1014,
      "believe": 1015,
      "else": 1016,
      "ys": 1017,
      "Ex": 1018,
      "cy": 1019,
      "iv": 1020,
      "heard": 1021,
      "main": 1022,
      "next": 1023,
      "aph": 1024,
      "least": 1025,
      "ago": 1026,
      "fine": 1027,
      "side": 1028,
      "LE": 1029,
      "ply": 1030,
      "ically": 1031,
      "action": 1032,
      "incl": 1033,
      "worst": 1034,
      "guy": 1035,
      "bably": 1036,
      "sch": 1037,
      "tru": 1038,
      "att": 1039,
      "ank": 1040,
      "til": 1041,
      "might": 1042,
      "creat": 1043,
      "ited": 1044,
      "wom": 1045,
      "ness": 1046,
      "ouse": 1047,
      "That": 1048,
      "getting": 1049,
      "Ne": 1050,
      "ents": 1051,
      "piece": 1052,
      "To": 1053,
      "true": 1054,
      "funny": 1055,
      "vol": 1056,
      "OO": 1057,
      "pack": 1058,
      "short": 1059,
      "disc": 1060,
      "Amer": 1061,
      "scre": 1062,
      "comes": 1063,
      "run": 1064,
      "AS": 1065,
      "Americ": 1066,
      "sha": 1067,
      "wish": 1068,
      "hear": 1069,
      "ghter": 1070,
      "full": 1071,
      "Just": 1072,
      "recei": 1073,
      "wanted": 1074,
      "ls": 1075,
      "sever": 1076,
      "dri": 1077,
      "finish": 1078,
      "isn": 1079,
      "open": 1080,
      "pages": 1081,
      "rest": 1082,
      "live": 1083,
      "dec": 1084,
      "vis": 1085,
      "happen": 1086,
      "stop": 1087,
      "pu": 1088,
      "arr": 1089,
      "ates": 1090,
      "enjoyed": 1091,
      "gether": 1092,
      "cour": 1093,
      "mas": 1094,
      "saw": 1095,
      "VE": 1096,
      "cially": 1097,
      "itch": 1098,
      "probably": 1099,
      "second": 1100,
      "trying": 1101,
      "job": 1102,
      "enter": 1103,
      "once": 1104,
      "box": 1105,
      "AR": 1106,
      "ru": 1107,
      "eng": 1108,
      "gets": 1109,
      "days": 1110,
      "together": 1111,
      "tried": 1112,
      "hold": 1113,
      "Li": 1114,
      "others": 1115,
      "itely": 1116,
      "hour": 1117,
      "20": 1118,
      "begin": 1119,
      "style": 1120,
      "experi": 1121,
      "alf": 1122,
      "Dis": 1123,
      "liked": 1124,
      "rock": 1125,
      "ither": 1126,
      "VER": 1127,
      "ush": 1128,
      "ject": 1129,
      "par": 1130,
      "cho": 1131,
      "wrong": 1132,
      "acting": 1133,
      "beautiful": 1134,
      "several": 1135,
      "ption": 1136,
      "family": 1137,
      "young": 1138,
      "until": 1139,
      "rill": 1140,
      "someone": 1141,
      "ween": 1142,
      "follow": 1143,
      "power": 1144,
      "gir": 1145,
      "couldn": 1146,
      "instead": 1147,
      "ress": 1148,
      "solute": 1149,
      "pick": 1150,
      "val": 1151,
      "?\",": 1152,
      "appe": 1153,
      "hope": 1154,
      "apter": 1155,
      "aper": 1156,
      "wasn": 1157,
      "sell": 1158,
      "Some": 1159,
      "everything": 1160,
      "ken": 1161,
      "que": 1162,
      "learn": 1163,
      "utes": 1164,
      "ger": 1165,
      "watching": 1166,
      "mean": 1167,
      "months": 1168,
      "gest": 1169,
      "three": 1170,
      "having": 1171,
      "lt": 1172,
      "case": 1173,
      "uring": 1174,
      "kids": 1175,
      "Se": 1176,
      "night": 1177,
      "buying": 1178,
      "purchase": 1179,
      "ying": 1180,
      "half": 1181,
      "arch": 1182,
      "went": 1183,
      "between": 1184,
      "graph": 1185,
      "present": 1186,
      "ME": 1187,
      "clear": 1188,
      "AND": 1189,
      "ments": 1190,
      "collection": 1191,
      "Bo": 1192,
      "exp": 1193,
      "already": 1194,
      "voice": 1195,
      "ider": 1196,
      "Le": 1197,
      "stuff": 1198,
      "bu": 1199,
      "cap": 1200,
      "exc": 1201,
      "THIS": 1202,
      "amazing": 1203,
      "espe": 1204,
      "happy": 1205,
      "item": 1206,
      "poss": 1207,
      "lect": 1208,
      "children": 1209,
      "ket": 1210,
      "deta": 1211,
      "inst": 1212,
      "Christ": 1213,
      "minutes": 1214,
      "information": 1215,
      "tem": 1216,
      "gave": 1217,
      "started": 1218,
      "especially": 1219,
      "ane": 1220,
      "school": 1221,
      "lar": 1222,
      "als": 1223,
      "vi": 1224,
      "took": 1225,
      "exam": 1226,
      "ised": 1227,
      "takes": 1228,
      "making": 1229,
      "quick": 1230,
      "highly": 1231,
      "left": 1232,
      "bas": 1233,
      "ror": 1234,
      "fit": 1235,
      "pare": 1236,
      "myself": 1237,
      "na": 1238,
      "ond": 1239,
      "plain": 1240,
      "lau": 1241,
      "history": 1242,
      "copy": 1243,
      "home": 1244,
      "oom": 1245,
      "ton": 1246,
      "unk": 1247,
      "BU": 1248,
      "200": 1249,
      "received": 1250,
      "effect": 1251,
      "stru": 1252,
      "seem": 1253,
      "BE": 1254,
      "ship": 1255,
      "bed": 1256,
      "era": 1257,
      "aughter": 1258,
      "mix": 1259,
      "stud": 1260,
      "TO": 1261,
      "50": 1262,
      "ord": 1263,
      "everyone": 1264,
      "ordered": 1265,
      "ames": 1266,
      "super": 1267,
      "entertain": 1268,
      "num": 1269,
      "stories": 1270,
      "hop": 1271,
      "reader": 1272,
      "US": 1273,
      "rather": 1274,
      "Well": 1275,
      "tech": 1276,
      "allow": 1277,
      "ED": 1278,
      "pass": 1279,
      "fall": 1280,
      "publ": 1281,
      "LO": 1282,
      "fre": 1283,
      "shi": 1284,
      "lin": 1285,
      "absolute": 1286,
      "pop": 1287,
      "definitely": 1288,
      "land": 1289,
      "Tr": 1290,
      "fant": 1291,
      "esome": 1292,
      "ided": 1293,
      "body": 1294,
      "gener": 1295,
      "Love": 1296,
      "ists": 1297,
      "ift": 1298,
      "master": 1299,
      "slow": 1300,
      "trans": 1301,
      "cam": 1302,
      "fortun": 1303,
      "however": 1304,
      "rent": 1305,
      "ctions": 1306,
      "fully": 1307,
      "og": 1308,
      "member": 1309,
      "issu": 1310,
      "ides": 1311,
      "mot": 1312,
      "daughter": 1313,
      "reme": 1314,
      "ret": 1315,
      "Pro": 1316,
      "couple": 1317,
      "lish": 1318,
      "fast": 1319,
      "At": 1320,
      "Book": 1321,
      "iction": 1322,
      "por": 1323,
      "pping": 1324,
      "bly": 1325,
      "ier": 1326,
      "These": 1327,
      "page": 1328,
      "scenes": 1329,
      "edition": 1330,
      "entire": 1331,
      "ey": 1332,
      "Ar": 1333,
      "hn": 1334,
      "looks": 1335,
      "velo": 1336,
      "gl": 1337,
      "words": 1338,
      "perfor": 1339,
      "ES": 1340,
      "fans": 1341,
      "ized": 1342,
      "sounds": 1343,
      "AD": 1344,
      "Now": 1345,
      "air": 1346,
      "etc": 1347,
      "simply": 1348,
      "heart": 1349,
      "ai": 1350,
      "batter": 1351,
      "With": 1352,
      "Mr": 1353,
      "special": 1354,
      "lead": 1355,
      "ils": 1356,
      "feature": 1357,
      "sof": 1358,
      "along": 1359,
      "past": 1360,
      "expected": 1361,
      "either": 1362,
      "ism": 1363,
      "felt": 1364,
      "quest": 1365,
      "LY": 1366,
      "Also": 1367,
      "surpr": 1368,
      "search": 1369,
      "laugh": 1370,
      "ird": 1371,
      "chapter": 1372,
      "Bl": 1373,
      "ross": 1374,
      "Com": 1375,
      "truly": 1376,
      "ended": 1377,
      "goes": 1378,
      "cept": 1379,
      "certain": 1380,
      "worked": 1381,
      "performan": 1382,
      "plan": 1383,
      "Every": 1384,
      "lad": 1385,
      "Gr": 1386,
      "idea": 1387,
      "completely": 1388,
      "size": 1389,
      "ustr": 1390,
      "miss": 1391,
      "problems": 1392,
      "phone": 1393,
      "water": 1394,
      "igh": 1395,
      "print": 1396,
      "develo": 1397,
      "free": 1398,
      "ace": 1399,
      "direct": 1400,
      "guess": 1401,
      "Po": 1402,
      "Ste": 1403,
      "pri": 1404,
      "John": 1405,
      "ming": 1406,
      "diffic": 1407,
      "ied": 1408,
      "break": 1409,
      "!!!": 1410,
      "player": 1411,
      "rid": 1412,
      "gar": 1413,
      "fla": 1414,
      "gift": 1415,
      "ility": 1416,
      "stay": 1417,
      "ca": 1418,
      "course": 1419,
      "cheap": 1420,
      "wait": 1421,
      "call": 1422,
      "spir": 1423,
      "aterial": 1424,
      "Christmas": 1425,
      "shows": 1426,
      "sense": 1427,
      "Ma": 1428,
      "terrible": 1429,
      "ats": 1430,
      "bs": 1431,
      "ional": 1432,
      "OF": 1433,
      "consider": 1434,
      "American": 1435,
      "pped": 1436,
      "dio": 1437,
      "Me": 1438,
      "contin": 1439,
      "IC": 1440,
      "Even": 1441,
      "includ": 1442,
      "deal": 1443,
      "ensive": 1444,
      "posed": 1445,
      "raw": 1446,
      "conf": 1447,
      "Cl": 1448,
      "chang": 1449,
      "cast": 1450,
      "mom": 1451,
      "ream": 1452,
      "wood": 1453,
      "replace": 1454,
      "lost": 1455,
      "write": 1456,
      "ired": 1457,
      "strong": 1458,
      "material": 1459,
      "ok": 1460,
      "Can": 1461,
      "maybe": 1462,
      "experience": 1463,
      "nor": 1464,
      "playing": 1465,
      "itself": 1466,
      "friends": 1467,
      "tracks": 1468,
      "lay": 1469,
      "sat": 1470,
      "Over": 1471,
      "Con": 1472,
      "design": 1473,
      "pay": 1474,
      "thinking": 1475,
      "yourself": 1476,
      "Per": 1477,
      "While": 1478,
      "ah": 1479,
      "house": 1480,
      "Sh": 1481,
      "cool": 1482,
      "stic": 1483,
      "working": 1484,
      "iled": 1485,
      "example": 1486,
      "ouch": 1487,
      "oot": 1488,
      "TV": 1489,
      "God": 1490,
      "Read": 1491,
      "teach": 1492,
      "arri": 1493,
      "istic": 1494,
      "today": 1495,
      "vil": 1496,
      "name": 1497,
      "albums": 1498,
      "move": 1499,
      "face": 1500,
      "unit": 1501,
      "extreme": 1502,
      "import": 1503,
      "men": 1504,
      "release": 1505,
      "ilar": 1506,
      "sex": 1507,
      "ley": 1508,
      "cannot": 1509,
      "coun": 1510,
      "sho": 1511,
      "simple": 1512,
      "screen": 1513,
      "text": 1514,
      "sit": 1515,
      "parts": 1516,
      "wouldn": 1517,
      "given": 1518,
      "absolutely": 1519,
      "sad": 1520,
      "check": 1521,
      "horrible": 1522,
      "loves": 1523,
      "ged": 1524,
      "called": 1525,
      "Eng": 1526,
      "played": 1527,
      "ences": 1528,
      "store": 1529,
      "clean": 1530,
      "ub": 1531,
      "difficult": 1532,
      "during": 1533,
      "opin": 1534,
      "hours": 1535,
      "Best": 1536,
      "parent": 1537,
      "apo": 1538,
      "hy": 1539,
      "ures": 1540,
      "ney": 1541,
      "count": 1542,
      "May": 1543,
      "doing": 1544,
      "incre": 1545,
      "close": 1546,
      "word": 1547,
      "Mar": 1548,
      "stick": 1549,
      "lyr": 1550,
      "support": 1551,
      "del": 1552,
      "remember": 1553,
      "kept": 1554,
      "easily": 1555,
      "later": 1556,
      "zz": 1557,
      "change": 1558,
      "boy": 1559,
      "needs": 1560,
      "fair": 1561,
      "gan": 1562,
      "previous": 1563,
      "Pe": 1564,
      "gives": 1565,
      "CH": 1566,
      "logy": 1567,
      "sci": 1568,
      "pot": 1569,
      "sug": 1570,
      "talent": 1571,
      "cas": 1572,
      "ted": 1573,
      "near": 1574,
      "upid": 1575,
      "gram": 1576,
      "LL": 1577,
      "cost": 1578,
      "fortunately": 1579,
      "Pr": 1580,
      "uses": 1581,
      "leg": 1582,
      "New": 1583,
      "single": 1584,
      ",\"": 1585,
      "week": 1586,
      "comput": 1587,
      "idd": 1588,
      "Exce": 1589,
      "edy": 1590,
      "suggest": 1591,
      "Is": 1592,
      "needed": 1593,
      "conne": 1594,
      "app": 1595,
      "Sp": 1596,
      "dv": 1597,
      "Qu": 1598,
      "sle": 1599,
      "finally": 1600,
      "ony": 1601,
      "ni": 1602,
      "30": 1603,
      "speak": 1604,
      "type": 1605,
      "impress": 1606,
      "liter": 1607,
      "ident": 1608,
      "ites": 1609,
      "orry": 1610,
      "color": 1611,
      "films": 1612,
      "ues": 1613,
      "ific": 1614,
      "girl": 1615,
      "RO": 1616,
      "dam": 1617,
      "says": 1618,
      "Fr": 1619,
      "ared": 1620,
      "possible": 1621,
      "listening": 1622,
      "12": 1623,
      "lit": 1624,
      "uni": 1625,
      "Why": 1626,
      "ters": 1627,
      "His": 1628,
      "matter": 1629,
      "ground": 1630,
      "cing": 1631,
      "serious": 1632,
      "fig": 1633,
      "DO": 1634,
      "card": 1635,
      "non": 1636,
      "partic": 1637,
      "ling": 1638,
      "...\"}": 1639,
      "told": 1640,
      "ouble": 1641,
      "awesome": 1642,
      "dog": 1643,
      "level": 1644,
      "scene": 1645,
      "Will": 1646,
      "ount": 1647,
      "asy": 1648,
      "astic": 1649,
      "ustom": 1650,
      "Any": 1651,
      "sw": 1652,
      "bot": 1653,
      "scri": 1654,
      "ends": 1655,
      "sequ": 1656,
      "ows": 1657,
      "coming": 1658,
      "mor": 1659,
      "lim": 1660,
      "!!!!!!!!": 1661,
      "ball": 1662,
      "cook": 1663,
      "lable": 1664,
      "prom": 1665,
      "Of": 1666,
      "iness": 1667,
      "forward": 1668,
      "pho": 1669,
      "AC": 1670,
      "four": 1671,
      "reli": 1672,
      "net": 1673,
      "load": 1674,
      "Her": 1675,
      "extremely": 1676,
      "key": 1677,
      "agree": 1678,
      "often": 1679,
      "hu": 1680,
      "stupid": 1681,
      "tempt": 1682,
      "watched": 1683,
      "YOU": 1684,
      "test": 1685,
      "seemed": 1686,
      "contain": 1687,
      "uss": 1688,
      "var": 1689,
      "dep": 1690,
      "company": 1691,
      "woman": 1692,
      "tot": 1693,
      "opinion": 1694,
      "ument": 1695,
      "based": 1696,
      "AY": 1697,
      "Buy": 1698,
      "pes": 1699,
      "Co": 1700,
      "intro": 1701,
      "Excellent": 1702,
      "SE": 1703,
      "ude": 1704,
      "writer": 1705,
      "MO": 1706,
      "deli": 1707,
      "kill": 1708,
      "gre": 1709,
      "cks": 1710,
      "photo": 1711,
      "syste": 1712,
      "beginning": 1713,
      "sus": 1714,
      "ned": 1715,
      "women": 1716,
      "early": 1717,
      "avai": 1718,
      "wal": 1719,
      "repe": 1720,
      "fiction": 1721,
      "prof": 1722,
      "recent": 1723,
      "interested": 1724,
      "jor": 1725,
      "important": 1726,
      "totally": 1727,
      "lid": 1728,
      "touch": 1729,
      "refer": 1730,
      "ices": 1731,
      "Car": 1732,
      "Or": 1733,
      "event": 1734,
      "mention": 1735,
      "En": 1736,
      "entertaining": 1737,
      "haps": 1738,
      "Man": 1739,
      "human": 1740,
      "alog": 1741,
      "tom": 1742,
      "service": 1743,
      "!!!\",": 1744,
      "wear": 1745,
      "weeks": 1746,
      "ulti": 1747,
      "ont": 1748,
      "exact": 1749,
      "humor": 1750,
      "dvd": 1751,
      "Chris": 1752,
      "happened": 1753,
      "wise": 1754,
      "available": 1755,
      "Ke": 1756,
      "toy": 1757,
      "dist": 1758,
      "paper": 1759,
      "langu": 1760,
      "sou": 1761,
      "haven": 1762,
      "plastic": 1763,
      "looked": 1764,
      "gy": 1765,
      "computer": 1766,
      "ima": 1767,
      "wer": 1768,
      "supposed": 1769,
      "atic": 1770,
      "ather": 1771,
      "Ti": 1772,
      "late": 1773,
      "avy": 1774,
      "!!\",": 1775,
      "?\"}": 1776,
      "ric": 1777,
      "obvious": 1778,
      "grou": 1779,
      "ware": 1780,
      "baby": 1781,
      "brand": 1782,
      "black": 1783,
      "become": 1784,
      "Go": 1785,
      "Although": 1786,
      "particular": 1787,
      "contro": 1788,
      "large": 1789,
      "ID": 1790,
      "rad": 1791,
      "ured": 1792,
      "performance": 1793,
      "lyrics": 1794,
      "bi": 1795,
      "effort": 1796,
      "longer": 1797,
      "dont": 1798,
      "room": 1799,
      "Ho": 1800,
      "season": 1801,
      "recommended": 1802,
      "100": 1803,
      "decided": 1804,
      "attempt": 1805,
      "First": 1806,
      "effects": 1807,
      "ising": 1808,
      "custom": 1809,
      "although": 1810,
      "oud": 1811,
      "Too": 1812,
      "15": 1813,
      "80": 1814,
      "incredi": 1815,
      "emot": 1816,
      "preci": 1817,
      "anno": 1818,
      "glad": 1819,
      "bus": 1820,
      "concer": 1821,
      "usband": 1822,
      "WH": 1823,
      "pract": 1824,
      "board": 1825,
      "deser": 1826,
      "ONE": 1827,
      "guit": 1828,
      "vin": 1829,
      "comfort": 1830,
      "awful": 1831,
      "huge": 1832,
      "ulous": 1833,
      "Mic": 1834,
      "ities": 1835,
      "oc": 1836,
      "extra": 1837,
      "Ed": 1838,
      "aged": 1839,
      "itive": 1840,
      "soon": 1841,
      "King": 1842,
      "cie": 1843,
      "disappointment": 1844,
      "hero": 1845,
      "guys": 1846,
      "bal": 1847,
      "dark": 1848,
      "unch": 1849,
      "ili": 1850,
      "ention": 1851,
      "husband": 1852,
      "Its": 1853,
      "save": 1854,
      "quickly": 1855,
      "pain": 1856,
      "mother": 1857,
      "English": 1858,
      "correct": 1859,
      "und": 1860,
      "ump": 1861,
      "antly": 1862,
      "wo": 1863,
      "battery": 1864,
      "bar": 1865,
      "worse": 1866,
      "suc": 1867,
      "apoint": 1868,
      "till": 1869,
      "mach": 1870,
      "Disappoint": 1871,
      "SO": 1872,
      "five": 1873,
      "Maybe": 1874,
      "language": 1875,
      "number": 1876,
      "EVER": 1877,
      "draw": 1878,
      "iso": 1879,
      "sel": 1880,
      "teen": 1881,
      ")\"}": 1882,
      "appro": 1883,
      "horror": 1884,
      "ults": 1885,
      "ator": 1886,
      "hate": 1887,
      "ler": 1888,
      "fee": 1889,
      "iss": 1890,
      "known": 1891,
      "certainly": 1892,
      "pen": 1893,
      "system": 1894,
      "cra": 1895,
      "actors": 1896,
      "af": 1897,
      "wife": 1898,
      "Then": 1899,
      "ably": 1900,
      "ron": 1901,
      "vocal": 1902,
      "pictures": 1903,
      "disappointing": 1904,
      "metal": 1905,
      "released": 1906,
      "sum": 1907,
      "ury": 1908,
      "taking": 1909,
      "within": 1910,
      "Like": 1911,
      "vert": 1912,
      "pose": 1913,
      "hot": 1914,
      "subject": 1915,
      "ref": 1916,
      "ital": 1917,
      "prov": 1918,
      "aging": 1919,
      "rilli": 1920,
      "program": 1921,
      "AM": 1922,
      "WI": 1923,
      "oun": 1924,
      "hone": 1925,
      "illy": 1926,
      "imag": 1927,
      "bla": 1928,
      "camera": 1929,
      "introdu": 1930,
      "\"\"": 1931,
      "advent": 1932,
      "satis": 1933,
      "Dr": 1934,
      "beat": 1935,
      "High": 1936,
      "Ple": 1937,
      "fut": 1938,
      "iced": 1939,
      "lling": 1940,
      "missing": 1941,
      "War": 1942,
      "moder": 1943,
      "!!\"}": 1944,
      "ky": 1945,
      "TI": 1946,
      "**": 1947,
      "Other": 1948,
      "adm": 1949,
      "Get": 1950,
      "pleas": 1951,
      "medi": 1952,
      "whe": 1953,
      "GE": 1954,
      "ability": 1955,
      "ison": 1956,
      "hair": 1957,
      "cla": 1958,
      "requ": 1959,
      "sign": 1960,
      "greatest": 1961,
      "ational": 1962,
      "ker": 1963,
      "tun": 1964,
      "episo": 1965,
      "install": 1966,
      "appreci": 1967,
      "major": 1968,
      "develop": 1969,
      "amp": 1970,
      "features": 1971,
      "rap": 1972,
      "weak": 1973,
      "oose": 1974,
      "histor": 1975,
      "die": 1976,
      "IE": 1977,
      "except": 1978,
      "condition": 1979,
      "recording": 1980,
      "iddle": 1981,
      "knew": 1982,
      "seeing": 1983,
      "antic": 1984,
      "personal": 1985,
      "lots": 1986,
      "rated": 1987,
      "hit": 1988,
      "turned": 1989,
      "Unfortunately": 1990,
      "sometimes": 1991,
      "CO": 1992,
      "addition": 1993,
      "zy": 1994,
      "anim": 1995,
      "cli": 1996,
      "guitar": 1997,
      "enjoyable": 1998,
      "taken": 1999,
      "expensive": 2000,
      "pair": 2001,
      "ctor": 2002,
      "arrived": 2003,
      "date": 2004,
      "dry": 2005,
      "novels": 2006,
      "row": 2007,
      "aving": 2008,
      "tray": 2009,
      "ished": 2010,
      "cu": 2011,
      "stra": 2012,
      "white": 2013,
      "instru": 2014,
      "From": 2015,
      "lock": 2016,
      "offee": 2017,
      "UN": 2018,
      "Jack": 2019,
      "group": 2020,
      "feeling": 2021,
      "dd": 2022,
      "ye": 2023,
      "exactly": 2024,
      "bing": 2025,
      "please": 2026,
      "himself": 2027,
      "Overall": 2028,
      "ele": 2029,
      "doll": 2030,
      "ze": 2031,
      "aren": 2032,
      "grand": 2033,
      "giving": 2034,
      "dram": 2035,
      "brary": 2036,
      "ential": 2037,
      "wind": 2038,
      "ines": 2039,
      "Ge": 2040,
      "unless": 2041,
      "dialog": 2042,
      "Char": 2043,
      "fantastic": 2044,
      "usually": 2045,
      "poorly": 2046,
      "mine": 2047,
      "Out": 2048,
      "setting": 2049,
      "LOVE": 2050,
      "bage": 2051,
      "standard": 2052,
      "heavy": 2053,
      "offer": 2054,
      "accur": 2055,
      "tape": 2056,
      "older": 2057,
      "finished": 2058,
      "HA": 2059,
      "bert": 2060,
      "future": 2061,
      "rote": 2062,
      "40": 2063,
      "Yes": 2064,
      "modern": 2065,
      "ume": 2066,
      "!!!\"}": 2067,
      "lives": 2068,
      "ale": 2069,
      "neg": 2070,
      "broke": 2071,
      "itting": 2072,
      "ham": 2073,
      "FOR": 2074,
      "research": 2075,
      "crit": 2076,
      "70": 2077,
      "asing": 2078,
      "script": 2079,
      "IG": 2080,
      "bother": 2081,
      "mess": 2082,
      "fresh": 2083,
      "useful": 2084,
      "attention": 2085,
      "swe": 2086,
      "production": 2087,
      "cult": 2088,
      "overall": 2089,
      "insight": 2090,
      "Col": 2091,
      "pieces": 2092,
      "plays": 2093,
      "annoying": 2094,
      "11": 2095,
      "gn": 2096,
      "pred": 2097,
      "Most": 2098,
      "selves": 2099,
      "uc": 2100,
      "Sm": 2101,
      "comedy": 2102,
      "step": 2103,
      "description": 2104,
      "susp": 2105,
      "decent": 2106,
      "inside": 2107,
      "stery": 2108,
      "tic": 2109,
      "wrote": 2110,
      "explain": 2111,
      "impro": 2112,
      "value": 2113,
      "products": 2114,
      "Ab": 2115,
      "azz": 2116,
      "Je": 2117,
      "readers": 2118,
      "ALL": 2119,
      "fight": 2120,
      "tle": 2121,
      "aster": 2122,
      "rating": 2123,
      "Sim": 2124,
      "dro": 2125,
      "death": 2126,
      "60": 2127,
      "nam": 2128,
      "build": 2129,
      "Movie": 2130,
      "deep": 2131,
      "wants": 2132,
      "due": 2133,
      "lines": 2134,
      "bers": 2135,
      "resp": 2136,
      "ural": 2137,
      "Sha": 2138,
      "lie": 2139,
      "arely": 2140,
      "saying": 2141,
      "sort": 2142,
      "anks": 2143,
      "dead": 2144,
      "os": 2145,
      "mm": 2146,
      "Please": 2147,
      "ali": 2148,
      "ently": 2149,
      "Bad": 2150,
      "shot": 2151,
      "tian": 2152,
      "brilli": 2153,
      "hind": 2154,
      "concept": 2155,
      "treat": 2156,
      "catch": 2157,
      "mal": 2158,
      "bring": 2159,
      "comfortable": 2160,
      "diss": 2161,
      "ake": 2162,
      "plic": 2163,
      "leave": 2164,
      "issues": 2165,
      "Won": 2166,
      "sage": 2167,
      "narr": 2168,
      "spo": 2169,
      "ister": 2170,
      "library": 2171,
      "graphy": 2172,
      "Oh": 2173,
      "orge": 2174,
      "machine": 2175,
      "detail": 2176,
      "polit": 2177,
      "sorry": 2178,
      "plug": 2179,
      "audio": 2180,
      "Sup": 2181,
      "waiting": 2182,
      "LD": 2183,
      "Tom": 2184,
      "spent": 2185,
      "Che": 2186,
      "atta": 2187,
      "aves": 2188,
      "coffee": 2189,
      "roll": 2190,
      "taste": 2191,
      "flu": 2192,
      "weight": 2193,
      "ution": 2194,
      "satisf": 2195,
      "Ser": 2196,
      "GRE": 2197,
      "ideas": 2198,
      "rip": 2199,
      "Ju": 2200,
      "relation": 2201,
      "helpful": 2202,
      "core": 2203,
      "bag": 2204,
      "sleep": 2205,
      "similar": 2206,
      "orn": 2207,
      "OOK": 2208,
      "grow": 2209,
      "sn": 2210,
      "oub": 2211,
      "issue": 2212,
      "believ": 2213,
      "Class": 2214,
      "fill": 2215,
      "gone": 2216,
      "Time": 2217,
      "tre": 2218,
      "advert": 2219,
      "Ter": 2220,
      "soft": 2221,
      "shipping": 2222,
      "wn": 2223,
      "reci": 2224,
      "ring": 2225,
      "ging": 2226,
      "burn": 2227,
      "hoping": 2228,
      "ener": 2229,
      "success": 2230,
      "Who": 2231,
      "throughout": 2232,
      "equ": 2233,
      "against": 2234,
      "rate": 2235,
      "Only": 2236,
      "adv": 2237,
      "honest": 2238,
      "cup": 2239,
      "Mc": 2240,
      "food": 2241,
      "paid": 2242,
      "avid": 2243,
      "BUY": 2244,
      "win": 2245,
      "alone": 2246,
      "amount": 2247,
      "tale": 2248,
      "ask": 2249,
      "moving": 2250,
      "spend": 2251,
      "foc": 2252,
      "male": 2253,
      "Does": 2254,
      "returned": 2255,
      "country": 2256,
      "By": 2257,
      "table": 2258,
      "Kind": 2259,
      "eyes": 2260,
      "post": 2261,
      "gain": 2262,
      "pan": 2263,
      "father": 2264,
      "ets": 2265,
      "replacement": 2266,
      "ina": 2267,
      "vir": 2268,
      "ises": 2269,
      "usual": 2270,
      "seller": 2271,
      "Did": 2272,
      "hook": 2273,
      "forget": 2274,
      ".....": 2275,
      "standing": 2276,
      "yond": 2277,
      "vest": 2278,
      "changed": 2279,
      "yes": 2280,
      "compe": 2281,
      "apart": 2282,
      "keeps": 2283,
      "Har": 2284,
      "AP": 2285,
      "cin": 2286,
      "radio": 2287,
      "tware": 2288,
      "doc": 2289,
      "middle": 2290,
      "har": 2291,
      "ws": 2292,
      "Aw": 2293,
      "actual": 2294,
      "including": 2295,
      "none": 2296,
      "tern": 2297,
      "surprised": 2298,
      "business": 2299,
      "reviewers": 2300,
      "claim": 2301,
      "connect": 2302,
      "Pa": 2303,
      "invol": 2304,
      "predict": 2305,
      "trouble": 2306,
      "ray": 2307,
      "front": 2308,
      "third": 2309,
      "ried": 2310,
      "OK": 2311,
      "handle": 2312,
      "spec": 2313,
      "dig": 2314,
      "included": 2315,
      "dire": 2316,
      "model": 2317,
      "HE": 2318,
      "fli": 2319,
      "TER": 2320,
      "stre": 2321,
      "fire": 2322,
      "recently": 2323,
      "Ano": 2324,
      "comment": 2325,
      "placed": 2326,
      "Bro": 2327,
      "singing": 2328,
      "Bar": 2329,
      "ield": 2330,
      "90": 2331,
      "LI": 2332,
      "flo": 2333,
      "RI": 2334,
      "aver": 2335,
      "romance": 2336,
      "Thank": 2337,
      "expecting": 2338,
      "grade": 2339,
      "iam": 2340,
      "behind": 2341,
      "musical": 2342,
      "covered": 2343,
      "elect": 2344,
      "mail": 2345,
      "Hor": 2346,
      "flow": 2347,
      "GREAT": 2348,
      "ances": 2349,
      "gotten": 2350,
      "anger": 2351,
      "Another": 2352,
      "customer": 2353,
      "straight": 2354,
      "control": 2355,
      ".)": 2356,
      "luck": 2357,
      "comb": 2358,
      "oring": 2359,
      "KE": 2360,
      "umb": 2361,
      "gun": 2362,
      "running": 2363,
      "software": 2364,
      "olly": 2365,
      "junk": 2366,
      "meaning": 2367,
      "lap": 2368,
      "Black": 2369,
      "exciting": 2370,
      "basic": 2371,
      "crap": 2372,
      "garbage": 2373,
      "sem": 2374,
      "mystery": 2375,
      "ati": 2376,
      "fell": 2377,
      "Clan": 2378,
      "Fun": 2379,
      "twice": 2380,
      "truth": 2381,
      "fi": 2382,
      "viol": 2383,
      "mark": 2384,
      "depth": 2385,
      "ior": 2386,
      "thrill": 2387,
      "knows": 2388,
      "ung": 2389,
      "rich": 2390,
      "const": 2391,
      "soul": 2392,
      "thy": 2393,
      "stopped": 2394,
      "ants": 2395,
      "chance": 2396,
      "ivid": 2397,
      "proper": 2398,
      "games": 2399,
      "chapters": 2400,
      "Still": 2401,
      "Poor": 2402,
      "Let": 2403,
      "figure": 2404,
      "Look": 2405,
      "sli": 2406,
      "pleased": 2407,
      "thin": 2408,
      "organ": 2409,
      "enty": 2410,
      "Wonder": 2411,
      "means": 2412,
      "doub": 2413,
      "Your": 2414,
      "urch": 2415,
      "capt": 2416,
      "ges": 2417,
      "excited": 2418,
      "famili": 2419,
      "MP": 2420,
      "tt": 2421,
      "send": 2422,
      "alot": 2423,
      "ugg": 2424,
      "tract": 2425,
      "pull": 2426,
      "remind": 2427,
      "somewhat": 2428,
      "cred": 2429,
      "train": 2430,
      "cable": 2431,
      "total": 2432,
      "ource": 2433,
      "authors": 2434,
      "ills": 2435,
      "avo": 2436,
      "ARE": 2437,
      "mp": 2438,
      "space": 2439,
      "loud": 2440,
      "lier": 2441,
      "local": 2442,
      "themselves": 2443,
      "ined": 2444,
      "dull": 2445,
      "flat": 2446,
      "trash": 2447,
      "bir": 2448,
      "state": 2449,
      "unique": 2450,
      "magaz": 2451,
      "parents": 2452,
      "Fe": 2453,
      "II": 2454,
      "appear": 2455,
      "drive": 2456,
      "hands": 2457,
      "18": 2458,
      "likes": 2459,
      "opt": 2460,
      "Gu": 2461,
      "abo": 2462,
      "details": 2463,
      "historical": 2464,
      "Nice": 2465,
      "ases": 2466,
      "dated": 2467,
      "hael": 2468,
      "adventure": 2469,
      "HO": 2470,
      "tight": 2471,
      "nearly": 2472,
      "bes": 2473,
      "advice": 2474,
      "terri": 2475,
      "happens": 2476,
      "VERY": 2477,
      "period": 2478,
      "los": 2479,
      "dialogue": 2480,
      "Au": 2481,
      "ene": 2482,
      "realistic": 2483,
      "believable": 2484,
      "starts": 2485,
      "choice": 2486,
      "imagin": 2487,
      "listened": 2488,
      "UST": 2489,
      "tect": 2490,
      "filled": 2491,
      "living": 2492,
      "slight": 2493,
      "current": 2494,
      "urt": 2495,
      "process": 2496,
      "fix": 2497,
      "telling": 2498,
      "13": 2499,
      "perhaps": 2500,
      "rench": 2501,
      "role": 2502,
      "brother": 2503,
      "Te": 2504,
      "profess": 2505,
      "nie": 2506,
      "THAT": 2507,
      "lled": 2508,
      "brilliant": 2509,
      "Christian": 2510,
      "iculous": 2511,
      "ica": 2512,
      "sme": 2513,
      "dest": 2514,
      "cked": 2515,
      "agon": 2516,
      "pite": 2517,
      "ba": 2518,
      "across": 2519,
      "wash": 2520,
      "oooo": 2521,
      "fantasy": 2522,
      "Clancy": 2523,
      "talking": 2524,
      "questions": 2525,
      "trad": 2526,
      "background": 2527,
      "necess": 2528,
      "fund": 2529,
      "regular": 2530,
      "remo": 2531,
      "beyond": 2532,
      "immedi": 2533,
      "Nothing": 2534,
      "AB": 2535,
      "zer": 2536,
      "Bet": 2537,
      "dream": 2538,
      "suspense": 2539,
      "respect": 2540,
      "BOOK": 2541,
      "World": 2542,
      "base": 2543,
      "package": 2544,
      "Save": 2545,
      "throw": 2546,
      "perfectly": 2547,
      "mostly": 2548,
      "Ok": 2549,
      "shar": 2550,
      "impressed": 2551,
      "perform": 2552,
      "illustr": 2553,
      "charge": 2554,
      "document": 2555,
      "ians": 2556,
      "ping": 2557,
      "solid": 2558,
      "door": 2559,
      "clearly": 2560,
      "mur": 2561,
      "died": 2562,
      "El": 2563,
      "Pl": 2564,
      "format": 2565,
      "question": 2566,
      "itor": 2567,
      "sold": 2568,
      "realize": 2569,
      "round": 2570,
      "sequel": 2571,
      "Big": 2572,
      "sens": 2573,
      "travel": 2574,
      "ris": 2575,
      "science": 2576,
      "Ms": 2577,
      "cry": 2578,
      "wards": 2579,
      "mic": 2580,
      "cat": 2581,
      "More": 2582,
      "BUT": 2583,
      "general": 2584,
      "jour": 2585,
      "incredible": 2586,
      "Sou": 2587,
      "usion": 2588,
      "frustr": 2589,
      "development": 2590,
      "bands": 2591,
      "psy": 2592,
      "America": 2593,
      "err": 2594,
      "apers": 2595,
      "Michael": 2596,
      "message": 2597,
      "doubt": 2598,
      "TR": 2599,
      "useless": 2600,
      "director": 2601,
      "compla": 2602,
      "cute": 2603,
      "talk": 2604,
      "comend": 2605,
      "sets": 2606,
      "pical": 2607,
      "ascin": 2608,
      "points": 2609,
      "picked": 2610,
      "learned": 2611,
      "predictable": 2612,
      "portray": 2613,
      "WAS": 2614,
      "bud": 2615,
      "accurate": 2616,
      "became": 2617,
      "bored": 2618,
      "25": 2619,
      "WOR": 2620,
      "vocals": 2621,
      "Day": 2622,
      "tired": 2623,
      "ledge": 2624,
      "Wind": 2625,
      "broken": 2626,
      "sl": 2627,
      "multi": 2628,
      "dance": 2629,
      "bottom": 2630,
      "Star": 2631,
      "da": 2632,
      "aid": 2633,
      "chan": 2634,
      "socie": 2635,
      "acy": 2636,
      "genre": 2637,
      "public": 2638,
      "audi": 2639,
      "mat": 2640,
      "wall": 2641,
      "dissapoint": 2642,
      "bow": 2643,
      "gon": 2644,
      "phones": 2645,
      "learning": 2646,
      "TS": 2647,
      "inspir": 2648,
      "trip": 2649,
      "Never": 2650,
      "plus": 2651,
      "Up": 2652,
      "ib": 2653,
      "ched": 2654,
      "note": 2655,
      "six": 2656,
      "pet": 2657,
      "relig": 2658,
      "situ": 2659,
      "wed": 2660,
      "invest": 2661,
      "writ": 2662,
      "CE": 2663,
      "hood": 2664,
      "met": 2665,
      "Really": 2666,
      "Kindle": 2667,
      "VIE": 2668,
      "duct": 2669,
      "ana": 2670,
      "PO": 2671,
      "tells": 2672,
      "Mor": 2673,
      "buck": 2674,
      "Inter": 2675,
      "Chi": 2676,
      "covers": 2677,
      "Thanks": 2678,
      "Classic": 2679,
      "Des": 2680,
      "match": 2681,
      "sed": 2682,
      "shop": 2683,
      "ening": 2684,
      "accept": 2685,
      "versions": 2686,
      "turns": 2687,
      "Fin": 2688,
      "Super": 2689,
      "powerful": 2690,
      "vision": 2691,
      "town": 2692,
      "guide": 2693,
      "Mon": 2694,
      "appreciate": 2695,
      "melo": 2696,
      "refund": 2697,
      "attle": 2698,
      "reach": 2699,
      "MA": 2700,
      "ollywood": 2701,
      "Ray": 2702,
      "average": 2703,
      "La": 2704,
      "Where": 2705,
      "heal": 2706,
      "above": 2707,
      "DE": 2708,
      "tim": 2709,
      "PS": 2710,
      "grad": 2711,
      "obviously": 2712,
      "shame": 2713,
      "complaint": 2714,
      "artist": 2715,
      "masterpiece": 2716,
      "girls": 2717,
      "99": 2718,
      "scary": 2719,
      "contains": 2720,
      "jazz": 2721,
      "rant": 2722,
      "tellig": 2723,
      "amazon": 2724,
      "nat": 2725,
      "earlier": 2726,
      "Blu": 2727,
      "market": 2728,
      "Wal": 2729,
      "exist": 2730,
      "admit": 2731,
      "brought": 2732,
      "vac": 2733,
      "feels": 2734,
      "stuck": 2735,
      "function": 2736,
      "scr": 2737,
      "anymore": 2738,
      "spirit": 2739,
      "pure": 2740,
      "reads": 2741,
      "tho": 2742,
      "sweet": 2743,
      "ient": 2744,
      "iny": 2745,
      "anyway": 2746,
      "Red": 2747,
      "iles": 2748,
      "events": 2749,
      "AW": 2750,
      "boys": 2751,
      "ooth": 2752,
      "switch": 2753,
      "answer": 2754,
      "immediately": 2755,
      "online": 2756,
      "warm": 2757,
      "ears": 2758,
      "pace": 2759,
      "Life": 2760,
      "soundtrack": 2761,
      "push": 2762,
      "ties": 2763,
      "putting": 2764,
      "bra": 2765,
      "Music": 2766,
      "continue": 2767,
      "reference": 2768,
      "upon": 2769,
      "batteries": 2770,
      "ries": 2771,
      "anced": 2772,
      "singer": 2773,
      "David": 2774,
      "lic": 2775,
      "okay": 2776,
      "Would": 2777,
      "reviewer": 2778,
      "Brit": 2779,
      "magazine": 2780,
      "reco": 2781,
      "Wr": 2782,
      "uro": 2783,
      "places": 2784,
      "ridiculous": 2785,
      "Nor": 2786,
      "spr": 2787,
      "deliver": 2788,
      "Frank": 2789,
      "flick": 2790,
      "fac": 2791,
      "wire": 2792,
      "tool": 2793,
      "Ger": 2794,
      "produced": 2795,
      "George": 2796,
      "added": 2797,
      "une": 2798,
      "account": 2799,
      "Spe": 2800,
      "IR": 2801,
      "Night": 2802,
      "volume": 2803,
      "enn": 2804,
      "leak": 2805,
      "MY": 2806,
      ").\"}": 2807,
      "EX": 2808,
      "urther": 2809,
      "prefer": 2810,
      "fol": 2811,
      "position": 2812,
      "glass": 2813,
      "ius": 2814,
      "rew": 2815,
      "instructions": 2816,
      "Fo": 2817,
      "basically": 2818,
      "students": 2819,
      "\"\",": 2820,
      "dies": 2821,
      "ager": 2822,
      "ordan": 2823,
      "........": 2824,
      "literature": 2825,
      "twist": 2826,
      "ding": 2827,
      "aspect": 2828,
      "commun": 2829,
      "difference": 2830,
      "understanding": 2831,
      "itchen": 2832,
      "Ad": 2833,
      "Rock": 2834,
      "Once": 2835,
      "intellig": 2836,
      "depress": 2837,
      "filter": 2838,
      "society": 2839,
      "manu": 2840,
      "download": 2841,
      "tive": 2842,
      "ief": 2843,
      "ENT": 2844,
      "wasted": 2845,
      "device": 2846,
      "omb": 2847,
      "exception": 2848,
      "struct": 2849,
      "birth": 2850,
      "rub": 2851,
      "aps": 2852,
      "nder": 2853,
      "storyline": 2854,
      "regard": 2855,
      "range": 2856,
      "leading": 2857,
      "project": 2858,
      "moments": 2859,
      "alled": 2860,
      "James": 2861,
      "appears": 2862,
      "ado": 2863,
      "actor": 2864,
      "skin": 2865,
      "ingly": 2866,
      "HS": 2867,
      "writers": 2868,
      "Little": 2869,
      "SU": 2870,
      "foot": 2871,
      "barely": 2872,
      "fascin": 2873,
      "hell": 2874,
      "lection": 2875,
      "Jordan": 2876,
      "bio": 2877,
      "compared": 2878,
      "Robert": 2879,
      "various": 2880,
      "negative": 2881,
      "Have": 2882,
      "atever": 2883,
      "sen": 2884,
      "anti": 2885,
      "REAL": 2886,
      "Ear": 2887,
      "views": 2888,
      "study": 2889,
      "chall": 2890,
      "ires": 2891,
      "purchasing": 2892,
      "inde": 2893,
      "educ": 2894,
      "feet": 2895,
      "16": 2896,
      "Gar": 2897,
      "14": 2898,
      "Since": 2899,
      "ilt": 2900,
      "Two": 2901,
      "mistake": 2902,
      "hearing": 2903,
      "Pat": 2904,
      "DON": 2905,
      "Gre": 2906,
      "leaves": 2907,
      "described": 2908,
      "area": 2909,
      "ners": 2910,
      "common": 2911,
      "impossible": 2912,
      "phen": 2913,
      "avoid": 2914,
      "delight": 2915,
      "ibly": 2916,
      "Way": 2917,
      "bon": 2918,
      "popular": 2919,
      "insp": 2920,
      "iet": 2921,
      "fail": 2922,
      "paint": 2923,
      "Was": 2924,
      "bunch": 2925,
      "contact": 2926,
      "Here": 2927,
      "thorough": 2928,
      "bul": 2929,
      "techno": 2930,
      "murder": 2931,
      "fairly": 2932,
      "HAVE": 2933,
      "mentioned": 2934,
      "ns": 2935,
      "compar": 2936,
      "published": 2937,
      "WE": 2938,
      "ican": 2939,
      "tiv": 2940,
      "minute": 2941,
      "college": 2942,
      "evil": 2943,
      "jud": 2944,
      "See": 2945,
      "eye": 2946,
      "section": 2947,
      "favorites": 2948,
      "opening": 2949,
      "confusing": 2950,
      "final": 2951,
      "positive": 2952,
      "transfer": 2953,
      "ran": 2954,
      "udes": 2955,
      "Highly": 2956,
      "otherwise": 2957,
      "UL": 2958,
      "Am": 2959,
      "Many": 2960,
      "techn": 2961,
      "exper": 2962,
      "drag": 2963,
      "manufact": 2964,
      "carry": 2965,
      "transl": 2966,
      "sick": 2967,
      "thetic": 2968,
      "Defin": 2969,
      "drama": 2970,
      "Mag": 2971,
      "mill": 2972,
      "inch": 2973,
      "ilarious": 2974,
      "particularly": 2975,
      "....\",": 2976,
      "Im": 2977,
      "whether": 2978,
      "pective": 2979,
      "Beaut": 2980,
      "pac": 2981,
      "inte": 2982,
      "ANY": 2983,
      "knowledge": 2984,
      "OOD": 2985,
      "appy": 2986,
      "leng": 2987,
      "continu": 2988,
      "GO": 2989,
      "gress": 2990,
      "cise": 2991,
      "enced": 2992,
      "sym": 2993,
      "imagine": 2994,
      "Hollywood": 2995,
      "familiar": 2996,
      "road": 2997,
      "illed": 2998,
      "blue": 2999,
      "rough": 3000,
      "webs": 3001,
      "helped": 3002,
      "smell": 3003,
      "fab": 3004,
      "iver": 3005,
      "cir": 3006,
      "becomes": 3007,
      "missed": 3008,
      "recipes": 3009,
      "consist": 3010,
      "complex": 3011,
      "HD": 3012,
      "Hard": 3013,
      "ptions": 3014,
      "bur": 3015,
      "lies": 3016,
      "Lu": 3017,
      "romantic": 3018,
      "gg": 3019,
      "VHS": 3020,
      "century": 3021,
      "PE": 3022,
      "provides": 3023,
      "OUT": 3024,
      "unt": 3025,
      "examples": 3026,
      "field": 3027,
      "loss": 3028,
      "hang": 3029,
      "vor": 3030,
      "noise": 3031,
      "diapers": 3032,
      "failed": 3033,
      "dur": 3034,
      "thes": 3035,
      "Works": 3036,
      "recogn": 3037,
      "erson": 3038,
      "Bible": 3039,
      "lights": 3040,
      "tage": 3041,
      "emp": 3042,
      "soph": 3043,
      "ams": 3044,
      "items": 3045,
      "ev": 3046,
      "fits": 3047,
      "outside": 3048,
      "Beat": 3049,
      "Dan": 3050,
      "ination": 3051,
      "rit": 3052,
      "forced": 3053,
      "button": 3054,
      "NE": 3055,
      "instr": 3056,
      "hilo": 3057,
      "performances": 3058,
      "facts": 3059,
      "AST": 3060,
      "edge": 3061,
      "Mart": 3062,
      "Rob": 3063,
      "talented": 3064,
      "Mac": 3065,
      "py": 3066,
      "silly": 3067,
      "asure": 3068,
      "abs": 3069,
      "shoes": 3070,
      "West": 3071,
      "notes": 3072,
      "tradition": 3073,
      "opened": 3074,
      "inner": 3075,
      "Str": 3076,
      "theme": 3077,
      "rec": 3078,
      "Instead": 3079,
      "involved": 3080,
      "presented": 3081,
      "episodes": 3082,
      "Wonderful": 3083,
      "starting": 3084,
      "helps": 3085,
      "drum": 3086,
      "satisfied": 3087,
      "ino": 3088,
      "wide": 3089,
      "seriously": 3090,
      "relationship": 3091,
      "subst": 3092,
      "????": 3093,
      "uff": 3094,
      "Lord": 3095,
      "Sony": 3096,
      "dev": 3097,
      "counter": 3098,
      "result": 3099,
      "skip": 3100,
      "access": 3101,
      "THER": 3102,
      "CK": 3103,
      "Sch": 3104,
      "cold": 3105,
      "hits": 3106,
      "mode": 3107,
      "easier": 3108,
      "episode": 3109,
      "IF": 3110,
      "sucks": 3111,
      "normal": 3112,
      "career": 3113,
      "Perhaps": 3114,
      "owned": 3115,
      "strange": 3116,
      "Sound": 3117,
      "concert": 3118,
      "scratch": 3119,
      "Disappointing": 3120,
      "crack": 3121,
      "noticed": 3122,
      "isher": 3123,
      "kick": 3124,
      "include": 3125,
      "forever": 3126,
      "wel": 3127,
      "warrant": 3128,
      "William": 3129,
      "MOVIE": 3130,
      "summer": 3131,
      "improve": 3132,
      "necessary": 3133,
      "cket": 3134,
      "hes": 3135,
      "Ever": 3136,
      "utter": 3137,
      "HT": 3138,
      "nature": 3139,
      "ering": 3140,
      "ify": 3141,
      "rig": 3142,
      "among": 3143,
      "results": 3144,
      "Paul": 3145,
      "Fant": 3146,
      "advertised": 3147,
      "!)": 3148,
      "dim": 3149,
      "fly": 3150,
      "loc": 3151,
      "tries": 3152,
      "Clay": 3153,
      "ially": 3154,
      "faith": 3155,
      "errors": 3156,
      "exer": 3157,
      "moment": 3158,
      "typical": 3159,
      "fle": 3160,
      "roy": 3161,
      "artists": 3162,
      "BO": 3163,
      "Jim": 3164,
      "mid": 3165,
      "irt": 3166,
      "eds": 3167,
      "brain": 3168,
      "Better": 3169,
      "Sorry": 3170,
      "oh": 3171,
      "sam": 3172,
      "blood": 3173,
      "seat": 3174,
      "discuss": 3175,
      "developed": 3176,
      "Tim": 3177,
      "thank": 3178,
      "198": 3179,
      "logical": 3180,
      "created": 3181,
      "site": 3182,
      "approach": 3183,
      "slightly": 3184,
      "PC": 3185,
      "apparent": 3186,
      "Could": 3187,
      "lens": 3188,
      "za": 3189,
      "smooth": 3190,
      "create": 3191,
      "ION": 3192,
      "loy": 3193,
      "aven": 3194,
      "sal": 3195,
      "imp": 3196,
      "purpose": 3197,
      "creative": 3198,
      "reality": 3199,
      "Rich": 3200,
      "mouse": 3201,
      "!\"": 3202,
      "rac": 3203,
      "izing": 3204,
      "ski": 3205,
      "ffer": 3206,
      "oper": 3207,
      "serv": 3208,
      "falls": 3209,
      "Child": 3210,
      "adjust": 3211,
      "apt": 3212,
      "individ": 3213,
      "appeal": 3214,
      "sister": 3215,
      "Product": 3216,
      "writes": 3217,
      "safe": 3218,
      "Ange": 3219,
      "Anne": 3220,
      "adult": 3221,
      "brings": 3222,
      "ki": 3223,
      "strugg": 3224,
      "ONG": 3225,
      "dom": 3226,
      "White": 3227,
      "introduction": 3228,
      "Awesome": 3229,
      "Boring": 3230,
      "force": 3231,
      "audience": 3232,
      "natural": 3233,
      "website": 3234,
      "Ind": 3235,
      "loose": 3236,
      "Watch": 3237,
      "held": 3238,
      "incredibly": 3239,
      "yr": 3240,
      "anna": 3241,
      "stur": 3242,
      "IL": 3243,
      "plenty": 3244,
      "arts": 3245,
      "hardly": 3246,
      "likely": 3247,
      "superb": 3248,
      "memory": 3249,
      "BEST": 3250,
      "verse": 3251,
      "apped": 3252,
      "tunes": 3253,
      "ugs": 3254,
      "web": 3255,
      "ension": 3256,
      "hated": 3257,
      "law": 3258,
      "female": 3259,
      "THING": 3260,
      "Review": 3261,
      "deserves": 3262,
      "emotion": 3263,
      "lame": 3264,
      "political": 3265,
      "aby": 3266,
      "regret": 3267,
      "foo": 3268,
      "mil": 3269,
      "Hope": 3270,
      "culture": 3271,
      "concl": 3272,
      "drink": 3273,
      "crazy": 3274,
      "Sy": 3275,
      "ban": 3276,
      "weird": 3277,
      "players": 3278,
      "tons": 3279,
      "leep": 3280,
      "ships": 3281,
      "hilarious": 3282,
      "Perfect": 3283,
      "beats": 3284,
      "realized": 3285,
      "READ": 3286,
      "recorded": 3287,
      "explo": 3288,
      "surprise": 3289,
      "Wow": 3290,
      "1st": 3291,
      "explan": 3292,
      "ula": 3293,
      "walk": 3294,
      "lose": 3295,
      "herself": 3296,
      "?\"": 3297,
      "imm": 3298,
      "ford": 3299,
      "outstanding": 3300,
      "BLE": 3301,
      "Mat": 3302,
      "ashion": 3303,
      "descriptions": 3304,
      "Having": 3305,
      "fing": 3306,
      "replaced": 3307,
      "fective": 3308,
      "199": 3309,
      "repetit": 3310,
      "WITH": 3311,
      "flash": 3312,
      "influ": 3313,
      "theat": 3314,
      "joke": 3315,
      "notice": 3316,
      "provide": 3317,
      "techni": 3318,
      "French": 3319,
      "GOOD": 3320,
      "mir": 3321,
      "direction": 3322,
      "hh": 3323,
      "apan": 3324,
      "meet": 3325,
      "odd": 3326,
      "\"...": 3327,
      "SS": 3328,
      "titles": 3329,
      "beg": 3330,
      "named": 3331,
      "packaging": 3332,
      "Wast": 3333,
      "TE": 3334,
      "sitting": 3335,
      "Terrible": 3336,
      "considering": 3337,
      "warranty": 3338,
      "teacher": 3339,
      "compare": 3340,
      "cant": 3341,
      "den": 3342,
      "fascinating": 3343,
      "further": 3344,
      "pul": 3345,
      "aking": 3346,
      "stock": 3347,
      "artic": 3348,
      "acc": 3349,
      "length": 3350,
      "fold": 3351,
      "OULD": 3352,
      "possibly": 3353,
      "FE": 3354,
      "thus": 3355,
      "info": 3356,
      "amer": 3357,
      "express": 3358,
      "?!": 3359,
      "anish": 3360,
      "Easy": 3361,
      "CDs": 3362,
      "Ber": 3363,
      "bass": 3364,
      "eat": 3365,
      "altern": 3366,
      "photos": 3367,
      "whatever": 3368,
      "student": 3369,
      "gent": 3370,
      "andy": 3371,
      "illa": 3372,
      "syn": 3373,
      "stri": 3374,
      "ivity": 3375,
      "Pret": 3376,
      "iot": 3377,
      "nel": 3378,
      "famous": 3379,
      "shape": 3380,
      "occas": 3381,
      "genius": 3382,
      "graphics": 3383,
      "morning": 3384,
      "required": 3385,
      "Smith": 3386,
      "trust": 3387,
      "phys": 3388,
      "wis": 3389,
      "lets": 3390,
      "adults": 3391,
      "laptop": 3392,
      "tee": 3393,
      "stere": 3394,
      "moves": 3395,
      "iest": 3396,
      "smaller": 3397,
      "poe": 3398,
      "perspective": 3399,
      "fashion": 3400,
      "Peter": 3401,
      "ahead": 3402,
      "els": 3403,
      "cine": 3404,
      "ered": 3405,
      "adapter": 3406,
      "asked": 3407,
      "finding": 3408,
      "focus": 3409,
      "2nd": 3410,
      "rian": 3411,
      "tea": 3412,
      "agr": 3413,
      "despite": 3414,
      "larger": 3415,
      "UR": 3416,
      "boo": 3417,
      "squ": 3418,
      "detailed": 3419,
      "Sco": 3420,
      "videos": 3421,
      "Worst": 3422,
      "Fl": 3423,
      "People": 3424,
      "digital": 3425,
      "credit": 3426,
      "gri": 3427,
      "following": 3428,
      "Disappointed": 3429,
      "constantly": 3430,
      "Jon": 3431,
      "Old": 3432,
      "Jane": 3433,
      "undred": 3434,
      "17": 3435,
      "began": 3436,
      "WO": 3437,
      "Windows": 3438,
      "Em": 3439,
      "Par": 3440,
      "lif": 3441,
      "Back": 3442,
      "Euro": 3443,
      "properly": 3444,
      "remote": 3445,
      "Ph": 3446,
      "Story": 3447,
      "battle": 3448,
      "wanting": 3449,
      "een": 3450,
      "orable": 3451,
      "iety": 3452,
      "cru": 3453,
      "designed": 3454,
      "Though": 3455,
      "studio": 3456,
      "pian": 3457,
      "arm": 3458,
      "sport": 3459,
      "Er": 3460,
      "holds": 3461,
      "inspired": 3462,
      "Song": 3463,
      "reve": 3464,
      "journey": 3465,
      "tv": 3466,
      "caught": 3467,
      "inc": 3468,
      "suffer": 3469,
      "Bought": 3470,
      "scar": 3471,
      "image": 3472,
      "Horrible": 3473,
      "Cha": 3474,
      "24": 3475,
      "cords": 3476,
      "classics": 3477,
      "pathetic": 3478,
      "END": 3479,
      "Gir": 3480,
      "nut": 3481,
      "extr": 3482,
      "bucks": 3483,
      "individual": 3484,
      "philo": 3485,
      "esy": 3486,
      "anywhere": 3487,
      "hip": 3488,
      "gas": 3489,
      "ified": 3490,
      "built": 3491,
      "ses": 3492,
      "sil": 3493,
      "stated": 3494,
      "cheaper": 3495,
      "Our": 3496,
      "workout": 3497,
      "lacks": 3498,
      "ium": 3499,
      "iment": 3500,
      "commer": 3501,
      "wit": 3502,
      "Lee": 3503,
      "didnt": 3504,
      "speed": 3505,
      "thats": 3506,
      "names": 3507,
      "Everything": 3508,
      "onto": 3509,
      "Japan": 3510,
      "itty": 3511,
      "progress": 3512,
      "Ac": 3513,
      "ben": 3514,
      "max": 3515,
      "ordin": 3516,
      "nal": 3517,
      "iously": 3518,
      "gust": 3519,
      "mixed": 3520,
      "smo": 3521,
      "shown": 3522,
      "preh": 3523,
      "returning": 3524,
      "informative": 3525,
      "surv": 3526,
      "magic": 3527,
      "recordings": 3528,
      "UP": 3529,
      "practice": 3530,
      ".,": 3531,
      "fish": 3532,
      "frame": 3533,
      "ival": 3534,
      "changes": 3535,
      "Beautiful": 3536,
      "ork": 3537,
      "professional": 3538,
      "feed": 3539,
      "stage": 3540,
      "suppose": 3541,
      "void": 3542,
      "receive": 3543,
      "Rom": 3544,
      "hundred": 3545,
      "puts": 3546,
      "Edition": 3547,
      "Bas": 3548,
      "Gold": 3549,
      "potential": 3550,
      "dumb": 3551,
      "tele": 3552,
      "ization": 3553,
      "lia": 3554,
      "expectations": 3555,
      "beautifully": 3556,
      "Last": 3557,
      "ining": 3558,
      "Worth": 3559,
      "valu": 3560,
      "Fil": 3561,
      "violence": 3562,
      "Act": 3563,
      "anal": 3564,
      "technical": 3565,
      "ape": 3566,
      "unning": 3567,
      "collect": 3568,
      "CT": 3569,
      "social": 3570,
      "party": 3571,
      "born": 3572,
      "assem": 3573,
      "clever": 3574,
      "sturdy": 3575,
      "heat": 3576,
      "irty": 3577,
      "British": 3578,
      ")\",": 3579,
      "kitchen": 3580,
      "tour": 3581,
      "aware": 3582,
      "lived": 3583,
      "offers": 3584,
      "cret": 3585,
      "ultim": 3586,
      "pleasure": 3587,
      "\".\"}": 3588,
      "Bla": 3589,
      "ously": 3590,
      "dollars": 3591,
      "double": 3592,
      "kno": 3593,
      "ww": 3594,
      "pad": 3595,
      "ples": 3596,
      "passion": 3597,
      "---": 3598,
      "ened": 3599,
      "listed": 3600,
      "effective": 3601,
      "colors": 3602,
      "Because": 3603,
      "thoroughly": 3604,
      "Bob": 3605,
      "bright": 3606,
      "mood": 3607,
      "Bre": 3608,
      "Much": 3609,
      "Ye": 3610,
      "Dream": 3611,
      "disk": 3612,
      "race": 3613,
      "SH": 3614,
      "tough": 3615,
      "illustrations": 3616,
      "eper": 3617,
      "Dark": 3618,
      "earth": 3619,
      "manual": 3620,
      "floor": 3621,
      "thriller": 3622,
      "lax": 3623,
      "worthy": 3624,
      "Had": 3625,
      "younger": 3626,
      "lasted": 3627,
      "ashing": 3628,
      "Anyone": 3629,
      "Amazing": 3630,
      "solution": 3631,
      "beauty": 3632,
      "frequ": 3633,
      "Baby": 3634,
      "rup": 3635,
      "followed": 3636,
      "ju": 3637,
      "thick": 3638,
      "omen": 3639,
      "rot": 3640,
      "dissapointed": 3641,
      "printer": 3642,
      "hooked": 3643,
      "Definitely": 3644,
      "mad": 3645,
      "rhy": 3646,
      "wild": 3647,
      "Sam": 3648,
      "Sure": 3649,
      "unting": 3650,
      "meant": 3651,
      "describe": 3652,
      "Blue": 3653,
      "ACK": 3654,
      "connection": 3655,
      "Got": 3656,
      "Hu": 3657,
      "bits": 3658,
      "copies": 3659,
      "Both": 3660,
      "craft": 3661,
      "shelf": 3662,
      "showing": 3663,
      "compan": 3664,
      "entertainment": 3665,
      "Enjoy": 3666,
      "Play": 3667,
      "ded": 3668,
      "tend": 3669,
      "complain": 3670,
      "via": 3671,
      "ANT": 3672,
      "latest": 3673,
      "Jes": 3674,
      "source": 3675,
      "iocre": 3676,
      "ail": 3677,
      "unlike": 3678,
      "god": 3679,
      "Album": 3680,
      "Waste": 3681,
      "Mis": 3682,
      "Tre": 3683,
      "lacking": 3684,
      "elsewhere": 3685,
      "tran": 3686,
      "ffic": 3687,
      "Quality": 3688,
      "energy": 3689,
      "option": 3690,
      "Cr": 3691,
      "elly": 3692,
      "moved": 3693,
      "includes": 3694,
      "limited": 3695,
      "AZ": 3696,
      "Are": 3697,
      "ita": 3698,
      "indic": 3699,
      "Europe": 3700,
      "ride": 3701,
      "office": 3702,
      "Pretty": 3703,
      "Sun": 3704,
      "delivery": 3705,
      "Ben": 3706,
      "afr": 3707,
      "dust": 3708,
      "share": 3709,
      "contri": 3710,
      "trick": 3711,
      "appropri": 3712,
      "separ": 3713,
      "Their": 3714,
      "unfortunately": 3715,
      "ques": 3716,
      "biggest": 3717,
      "solo": 3718,
      "relate": 3719,
      "Sad": 3720,
      "bling": 3721,
      "rigu": 3722,
      "honestly": 3723,
      "bread": 3724,
      "anted": 3725,
      "higher": 3726,
      "distur": 3727,
      "stain": 3728,
      "ands": 3729,
      "def": 3730,
      "suit": 3731,
      "000": 3732,
      "showed": 3733,
      "shipped": 3734,
      "Sk": 3735,
      "wing": 3736,
      "terms": 3737,
      "emotional": 3738,
      "irm": 3739,
      "protect": 3740,
      "suck": 3741,
      "......": 3742,
      "PER": 3743,
      "ald": 3744,
      "contr": 3745,
      "attract": 3746,
      "visual": 3747,
      "durable": 3748,
      "punk": 3749,
      "finds": 3750,
      "Bur": 3751,
      "ths": 3752,
      "ata": 3753,
      "Pal": 3754,
      "Try": 3755,
      "ga": 3756,
      "stream": 3757,
      "imagination": 3758,
      "indeed": 3759,
      "manner": 3760,
      "memories": 3761,
      "boot": 3762,
      "mise": 3763,
      "represent": 3764,
      "convin": 3765,
      "inks": 3766,
      "members": 3767,
      "orm": 3768,
      "Plus": 3769,
      "bear": 3770,
      "badly": 3771,
      "blu": 3772,
      "personally": 3773,
      "Power": 3774,
      "documentary": 3775,
      "Each": 3776,
      "hype": 3777,
      "hasn": 3778,
      "PRO": 3779,
      "choose": 3780,
      "AIN": 3781,
      "umes": 3782,
      "selling": 3783,
      "WAY": 3784,
      "towards": 3785,
      "ards": 3786,
      "onic": 3787,
      "ampers": 3788,
      "reasons": 3789,
      "philosoph": 3790,
      "idge": 3791,
      "club": 3792,
      "voc": 3793,
      "flaw": 3794,
      "PL": 3795,
      "folks": 3796,
      "somewhere": 3797,
      "daily": 3798,
      "cross": 3799,
      "blues": 3800,
      "stores": 3801,
      "sters": 3802,
      "olic": 3803,
      "literally": 3804,
      "fat": 3805,
      "Pre": 3806,
      "recomend": 3807,
      "comments": 3808,
      "rede": 3809,
      "Beatles": 3810,
      "priced": 3811,
      "terrific": 3812,
      "Disney": 3813,
      "wearing": 3814,
      "commercial": 3815,
      "Kid": 3816,
      "jump": 3817,
      "izes": 3818,
      "Keep": 3819,
      "Finally": 3820,
      "LP": 3821,
      "Stre": 3822,
      "multiple": 3823,
      "spect": 3824,
      "!!!!\",": 3825,
      "sounded": 3826,
      "thoughts": 3827,
      "scient": 3828,
      "figured": 3829,
      "erous": 3830,
      "trag": 3831,
      "Anyway": 3832,
      "vamp": 3833,
      "user": 3834,
      "sale": 3835,
      "minor": 3836,
      "AA": 3837,
      "spot": 3838,
      "indust": 3839,
      "tap": 3840,
      "Thom": 3841,
      "itted": 3842,
      "CR": 3843,
      "Mad": 3844,
      "discovered": 3845,
      "city": 3846,
      "thinks": 3847,
      "GET": 3848,
      "challeng": 3849,
      "Lot": 3850,
      "sun": 3851,
      "ama": 3852,
      "proof": 3853,
      "Bill": 3854,
      "sla": 3855,
      "tone": 3856,
      "exe": 3857,
      "zero": 3858,
      "Di": 3859,
      "lessly": 3860,
      "empt": 3861,
      "Stephen": 3862,
      "Again": 3863,
      "cro": 3864,
      "oop": 3865,
      "prepare": 3866,
      "FUL": 3867,
      "Med": 3868,
      "killed": 3869,
      "yn": 3870,
      "variety": 3871,
      "blow": 3872,
      "struction": 3873,
      "animals": 3874,
      "fu": 3875,
      "fails": 3876,
      "images": 3877,
      "Ham": 3878,
      "mou": 3879,
      "Earth": 3880,
      "idence": 3881,
      "compreh": 3882,
      "wondering": 3883,
      "installed": 3884,
      "considered": 3885,
      "prose": 3886,
      "ency": 3887,
      "iler": 3888,
      "wers": 3889,
      "Cor": 3890,
      "sides": 3891,
      "uum": 3892,
      "weren": 3893,
      "birthday": 3894,
      "Whe": 3895,
      "brush": 3896,
      "instrument": 3897,
      "Hel": 3898,
      "sess": 3899,
      "team": 3900,
      "Hell": 3901,
      "commentary": 3902,
      "sharp": 3903,
      "AV": 3904,
      "dan": 3905,
      "TIME": 3906,
      "DVDs": 3907,
      "197": 3908,
      "andom": 3909,
      "mental": 3910,
      "lower": 3911,
      "inno": 3912,
      "viewing": 3913,
      "Otherwise": 3914,
      "circ": 3915,
      "uments": 3916,
      "courage": 3917,
      "streng": 3918,
      "Gl": 3919,
      "Sc": 3920,
      "relax": 3921,
      "creen": 3922,
      "headphones": 3923,
      "practical": 3924,
      "AG": 3925,
      "rare": 3926,
      "aries": 3927,
      "turning": 3928,
      "provided": 3929,
      "Sci": 3930,
      "ision": 3931,
      "aked": 3932,
      "intrigu": 3933,
      "....\"}": 3934,
      "display": 3935,
      "smart": 3936,
      "topic": 3937,
      "mally": 3938,
      "ROM": 3939,
      "ik": 3940,
      "shut": 3941,
      "nicely": 3942,
      "hopes": 3943,
      "Absolute": 3944,
      "afraid": 3945,
      "catchy": 3946,
      "bonus": 3947,
      "USB": 3948,
      "everyday": 3949,
      "compelling": 3950,
      "Martin": 3951,
      "BAD": 3952,
      "atman": 3953,
      "stal": 3954,
      "volution": 3955,
      "experienced": 3956,
      "falling": 3957,
      "Everyone": 3958,
      "kets": 3959,
      "electron": 3960,
      "discover": 3961,
      "numbers": 3962,
      "YOUR": 3963,
      "belief": 3964,
      "Harry": 3965,
      "Live": 3966,
      "thanks": 3967,
      "Dead": 3968,
      "grew": 3969,
      "ordering": 3970,
      "Long": 3971,
      "Must": 3972,
      "mount": 3973,
      "twists": 3974,
      "intelligent": 3975,
      "budget": 3976,
      "Cap": 3977,
      "List": 3978,
      "eventually": 3979,
      "mary": 3980,
      "recie": 3981,
      "maker": 3982,
      "quit": 3983,
      "packed": 3984,
      "ordinary": 3985,
      "feelings": 3986,
      "careful": 3987,
      "extras": 3988,
      "Sant": 3989,
      "tire": 3990,
      "gard": 3991,
      "phr": 3992,
      "horri": 3993,
      "Afr": 3994,
      "ateg": 3995,
      "Val": 3996,
      "whose": 3997,
      "breath": 3998,
      "rain": 3999,
      "vic": 4000,
      "bigger": 4001,
      "Brian": 4002,
      "Down": 4003,
      "?)": 4004,
      "outer": 4005,
      "myster": 4006,
      "fault": 4007,
      "Russ": 4008,
      "skills": 4009,
      "runs": 4010,
      "remain": 4011,
      "Need": 4012,
      "WHAT": 4013,
      "depressing": 4014,
      "Joe": 4015,
      "breaking": 4016,
      "arg": 4017,
      "sea": 4018,
      "speakers": 4019,
      "cooking": 4020,
      "hom": 4021,
      "pse": 4022,
      "ux": 4023,
      "publish": 4024,
      "Min": 4025,
      "Que": 4026,
      "specific": 4027,
      "stret": 4028,
      "conds": 4029,
      "alloween": 4030,
      "appropriate": 4031,
      "carto": 4032,
      "publisher": 4033,
      "killer": 4034,
      "drawn": 4035,
      "roo": 4036,
      "iel": 4037,
      "Light": 4038,
      "Sur": 4039,
      "lovely": 4040,
      "Second": 4041,
      "Scott": 4042,
      "fal": 4043,
      "ays": 4044,
      "defective": 4045,
      "discs": 4046,
      "drop": 4047,
      "Hist": 4048,
      "Pla": 4049,
      "envir": 4050,
      "ada": 4051,
      "iff": 4052,
      "cards": 4053,
      "Tot": 4054,
      "score": 4055,
      "mediocre": 4056,
      "hadn": 4057,
      "Ap": 4058,
      "Seas": 4059,
      "York": 4060,
      "rd": 4061,
      "Pan": 4062,
      "zen": 4063,
      "pressure": 4064,
      "engine": 4065,
      "ano": 4066,
      "comic": 4067,
      "NOW": 4068,
      "45": 4069,
      "Tru": 4070,
      "editing": 4071,
      "Jesus": 4072,
      "graphic": 4073,
      "elements": 4074,
      "apparently": 4075,
      "Dick": 4076,
      "alive": 4077,
      "conven": 4078,
      "premise": 4079,
      "MUST": 4080,
      "phe": 4081,
      "init": 4082,
      "gry": 4083,
      "green": 4084,
      "cell": 4085,
      "Being": 4086,
      "saved": 4087,
      "unbelievable": 4088,
      "Boy": 4089,
      "types": 4090,
      "manufactur": 4091,
      "Master": 4092,
      "arent": 4093,
      "readable": 4094,
      "internet": 4095,
      "psycho": 4096,
      "Mary": 4097,
      "SA": 4098,
      "threw": 4099,
      "iden": 4100,
      "brief": 4101,
      "definately": 4102,
      "critic": 4103,
      "wireless": 4104,
      "theater": 4105,
      "report": 4106,
      "accom": 4107,
      "growing": 4108,
      "Miss": 4109,
      "ZZ": 4110,
      "shouldn": 4111,
      "ATE": 4112,
      "atin": 4113,
      "disgust": 4114,
      "mass": 4115,
      "seconds": 4116,
      ".\"\"}": 4117,
      "demon": 4118,
      "somehow": 4119,
      "Mel": 4120,
      "auto": 4121,
      "2000": 4122,
      "Spanish": 4123,
      "respons": 4124,
      "random": 4125,
      "passed": 4126,
      "motor": 4127,
      "Richard": 4128,
      "ero": 4129,
      "editor": 4130,
      "deter": 4131,
      "Run": 4132,
      "CA": 4133,
      "PLE": 4134,
      "surprising": 4135,
      "vacuum": 4136,
      "chop": 4137,
      "debut": 4138,
      "pra": 4139,
      "grab": 4140,
      "cuts": 4141,
      "dogs": 4142,
      "Eli": 4143,
      "conom": 4144,
      "plane": 4145,
      "keeping": 4146,
      "Interest": 4147,
      "dish": 4148,
      "address": 4149,
      "shock": 4150,
      "$$": 4151,
      "bled": 4152,
      "entirely": 4153,
      "inspiring": 4154,
      "repeated": 4155,
      "Aust": 4156,
      "Home": 4157,
      "dress": 4158,
      "jum": 4159,
      "knowing": 4160,
      "tedious": 4161,
      "kni": 4162,
      "tu": 4163,
      "asleep": 4164,
      "actions": 4165,
      "msy": 4166,
      "originally": 4167,
      "Green": 4168,
      "bottle": 4169,
      "depend": 4170,
      "painful": 4171,
      "station": 4172,
      "kespe": 4173,
      "printed": 4174,
      "piano": 4175,
      "remaster": 4176,
      "chi": 4177,
      "flavor": 4178,
      "CAN": 4179,
      "edited": 4180,
      "Cath": 4181,
      "fear": 4182,
      "disapoint": 4183,
      "generation": 4184,
      "cases": 4185,
      "Van": 4186,
      "lex": 4187,
      "thrown": 4188,
      "sec": 4189,
      "ato": 4190,
      "Johnny": 4191,
      "Far": 4192,
      "dad": 4193,
      "cheesy": 4194,
      "crime": 4195,
      "changing": 4196,
      "fighting": 4197,
      "frustrating": 4198,
      "Moo": 4199,
      "aa": 4200,
      "mand": 4201,
      "rist": 4202,
      "Sand": 4203,
      "sight": 4204,
      "experiences": 4205,
      "Max": 4206,
      "situations": 4207,
      "DER": 4208,
      "Under": 4209,
      "stood": 4210,
      "neither": 4211,
      "provo": 4212,
      "shoe": 4213,
      "Ry": 4214,
      "Take": 4215,
      "remove": 4216,
      "interpret": 4217,
      "allows": 4218,
      "building": 4219,
      "numerous": 4220,
      "literary": 4221,
      "NY": 4222,
      "aming": 4223,
      "respon": 4224,
      "Met": 4225,
      "compil": 4226,
      "translation": 4227,
      "otic": 4228,
      "surround": 4229,
      "Pot": 4230,
      "Tol": 4231,
      "rush": 4232,
      "shallow": 4233,
      "anybody": 4234,
      "delivered": 4235,
      "REALLY": 4236,
      "rema": 4237,
      "intended": 4238,
      "puzz": 4239,
      "tune": 4240,
      "ax": 4241,
      "ASE": 4242,
      "BL": 4243,
      "Del": 4244,
      "MS": 4245,
      "depict": 4246,
      "stands": 4247,
      "environ": 4248,
      "nia": 4249,
      "IST": 4250,
      "claims": 4251,
      "repetitive": 4252,
      "DU": 4253,
      "lover": 4254,
      "continues": 4255,
      "QU": 4256,
      "danger": 4257,
      "situation": 4258,
      "Vo": 4259,
      "sey": 4260,
      "unable": 4261,
      "former": 4262,
      "Mur": 4263,
      "repair": 4264,
      "leaving": 4265,
      "ables": 4266,
      "object": 4267,
      "WILL": 4268,
      "holes": 4269,
      "196": 4270,
      "relev": 4271,
      "Wish": 4272,
      "pump": 4273,
      "ades": 4274,
      "pointless": 4275,
      "shower": 4276,
      "childhood": 4277,
      "laughing": 4278,
      "religious": 4279,
      "LIKE": 4280,
      "ller": 4281,
      "traditional": 4282,
      "acted": 4283,
      "THEY": 4284,
      "Dire": 4285,
      "fool": 4286,
      "va": 4287,
      "screw": 4288,
      "Steve": 4289,
      "!!!!!!!!!!!!!!!!": 4290,
      "technology": 4291,
      "House": 4292,
      "prote": 4293,
      "engaging": 4294,
      "paperback": 4295,
      "mare": 4296,
      "concepts": 4297,
      "justice": 4298,
      "adding": 4299,
      "Hill": 4300,
      "Tri": 4301,
      "pod": 4302,
      "udd": 4303,
      "worthless": 4304,
      "True": 4305,
      "valuable": 4306,
      "Avoid": 4307,
      "kit": 4308,
      "tast": 4309,
      "manage": 4310,
      "Loved": 4311,
      "pi": 4312,
      "alo": 4313,
      "irrit": 4314,
      "letter": 4315,
      "standards": 4316,
      "3rd": 4317,
      "mere": 4318,
      "refresh": 4319,
      "costs": 4320,
      "ILL": 4321,
      "signific": 4322,
      "Off": 4323,
      "rious": 4324,
      "superior": 4325,
      "emotions": 4326,
      "Shakespe": 4327,
      "ike": 4328,
      "DI": 4329,
      "pati": 4330,
      "theless": 4331,
      "plots": 4332,
      "paced": 4333,
      "kinda": 4334,
      "destroy": 4335,
      "South": 4336,
      "lon": 4337,
      "ousy": 4338,
      "path": 4339,
      "itation": 4340,
      "About": 4341,
      "Doesn": 4342,
      "benef": 4343,
      "End": 4344,
      "Fre": 4345,
      "church": 4346,
      "pleasant": 4347,
      "Plan": 4348,
      "nu": 4349,
      "gover": 4350,
      "!!!!\"}": 4351,
      "crash": 4352,
      "gonna": 4353,
      "Men": 4354,
      "Part": 4355,
      "Ty": 4356,
      "comed": 4357,
      "Pri": 4358,
      "barr": 4359,
      "adapt": 4360,
      "Those": 4361,
      "awn": 4362,
      "ITE": 4363,
      "references": 4364,
      "Park": 4365,
      "Sat": 4366,
      "below": 4367,
      "touching": 4368,
      "footage": 4369,
      "Come": 4370,
      "Give": 4371,
      "strongly": 4372,
      "generally": 4373,
      "Didn": 4374,
      "connected": 4375,
      "igno": 4376,
      "creep": 4377,
      "warning": 4378,
      "Okay": 4379,
      "Game": 4380,
      "kers": 4381,
      "vs": 4382,
      "Ital": 4383,
      "related": 4384,
      "doesnt": 4385,
      "diaper": 4386,
      "ography": 4387,
      "ya": 4388,
      "CON": 4389,
      "oil": 4390,
      "idiot": 4391,
      "pol": 4392,
      "qual": 4393,
      "releases": 4394,
      "reflect": 4395,
      "hat": 4396,
      "remark": 4397,
      "itary": 4398,
      "stat": 4399,
      "Real": 4400,
      "Lou": 4401,
      "Wa": 4402,
      "chair": 4403,
      "allowed": 4404,
      "impressive": 4405,
      "300": 4406,
      "ERE": 4407,
      "NEVER": 4408,
      "Ru": 4409,
      "ek": 4410,
      "thern": 4411,
      "achie": 4412,
      "rocks": 4413,
      "voices": 4414,
      "decide": 4415,
      "Jan": 4416,
      "sco": 4417,
      "actress": 4418,
      "cutting": 4419,
      "levels": 4420,
      "Jones": 4421,
      "chain": 4422,
      "center": 4423,
      "prior": 4424,
      "correctly": 4425,
      "EVERY": 4426,
      "Mill": 4427,
      "labor": 4428,
      "willing": 4429,
      "cream": 4430,
      "response": 4431,
      "soo": 4432,
      "iding": 4433,
      "Beware": 4434,
      "credi": 4435,
      "confused": 4436,
      "blade": 4437,
      "beware": 4438,
      "click": 4439,
      "minis": 4440,
      "friendly": 4441,
      "directions": 4442,
      "jokes": 4443,
      "aspects": 4444,
      "City": 4445,
      "Dune": 4446,
      "scan": 4447,
      "mouth": 4448,
      "MB": 4449,
      "Sil": 4450,
      "rout": 4451,
      "tiny": 4452,
      "chick": 4453,
      "ender": 4454,
      "Before": 4455,
      "relationships": 4456,
      "prin": 4457,
      "ppy": 4458,
      "China": 4459,
      "attach": 4460,
      "German": 4461,
      "Res": 4462,
      "ders": 4463,
      "theory": 4464,
      "hur": 4465,
      "states": 4466,
      "chose": 4467,
      "liday": 4468,
      "code": 4469,
      "reminds": 4470,
      "Wil": 4471,
      "toys": 4472,
      "alle": 4473,
      "ilities": 4474,
      "Fa": 4475,
      "applic": 4476,
      "driving": 4477,
      "reccomend": 4478,
      "ives": 4479,
      "tar": 4480,
      "Comple": 4481,
      "villa": 4482,
      "Moore": 4483,
      "Use": 4484,
      "lls": 4485,
      "Reading": 4486,
      "SP": 4487,
      "tent": 4488,
      "gold": 4489,
      "borrow": 4490,
      "visit": 4491,
      "Art": 4492,
      "dramatic": 4493,
      "Mer": 4494,
      "shoo": 4495,
      "ideo": 4496,
      "tur": 4497,
      "Free": 4498,
      "SC": 4499,
      "van": 4500,
      "worn": 4501,
      "DIS": 4502,
      "convers": 4503,
      "grown": 4504,
      "amazed": 4505,
      "flimsy": 4506,
      "Shakespeare": 4507,
      "iling": 4508,
      "spin": 4509,
      "lesson": 4510,
      "waited": 4511,
      "Should": 4512,
      "Interesting": 4513,
      "deserve": 4514,
      "Season": 4515,
      "sand": 4516,
      "contem": 4517,
      "fake": 4518,
      "selection": 4519,
      "meets": 4520,
      "answers": 4521,
      "sexual": 4522,
      "techniques": 4523,
      "cers": 4524,
      "tly": 4525,
      "buttons": 4526,
      "explained": 4527,
      "charger": 4528,
      "surface": 4529,
      "narrative": 4530,
      "thri": 4531,
      "iana": 4532,
      "Series": 4533,
      "Halloween": 4534,
      "adds": 4535,
      "essential": 4536,
      "themes": 4537,
      "Ret": 4538,
      "hurt": 4539,
      "pow": 4540,
      "Wood": 4541,
      "uce": 4542,
      "records": 4543,
      "ico": 4544,
      "cei": 4545,
      "normally": 4546,
      "misleading": 4547,
      "topics": 4548,
      "rubber": 4549,
      "aff": 4550,
      "wanna": 4551,
      "rend": 4552,
      "plains": 4553,
      "epic": 4554,
      "street": 4555,
      "Show": 4556,
      "XP": 4557,
      "link": 4558,
      "fabulous": 4559,
      "Lots": 4560,
      "Has": 4561,
      "Heart": 4562,
      "Death": 4563,
      "35": 4564,
      "Batman": 4565,
      "Tal": 4566,
      "...\"": 4567,
      "ruined": 4568,
      "kin": 4569,
      "aring": 4570,
      "conclusion": 4571,
      "disturbing": 4572,
      "ram": 4573,
      "lean": 4574,
      "provoking": 4575,
      "Low": 4576,
      "invent": 4577,
      "enjoying": 4578,
      "RIBLE": 4579,
      "accident": 4580,
      "Bel": 4581,
      "sudd": 4582,
      "keyboard": 4583,
      "loving": 4584,
      "teaching": 4585,
      "Simply": 4586,
      "community": 4587,
      "strength": 4588,
      "Rain": 4589,
      "econom": 4590,
      "ston": 4591,
      "tips": 4592,
      "ources": 4593,
      "offered": 4594,
      "nowhere": 4595,
      "musician": 4596,
      "flict": 4597,
      "finest": 4598,
      "Japanese": 4599,
      "ease": 4600,
      "cher": 4601,
      "musicians": 4602,
      "relative": 4603,
      "yl": 4604,
      "AMAZ": 4605,
      "fif": 4606,
      "ptive": 4607,
      "secret": 4608,
      "lovers": 4609,
      "angle": 4610,
      "Absolutely": 4611,
      "Kelly": 4612,
      "Pampers": 4613,
      "aling": 4614,
      "Brown": 4615,
      "appeared": 4616,
      "rave": 4617,
      "cleaning": 4618,
      "begins": 4619,
      "sudden": 4620,
      "JUST": 4621,
      "media": 4622,
      "reliable": 4623,
      "Fantastic": 4624,
      "(\"": 4625,
      "Money": 4626,
      "minim": 4627,
      "require": 4628,
      "accompl": 4629,
      "FO": 4630,
      "Ko": 4631,
      "hill": 4632,
      "icated": 4633,
      "lied": 4634,
      "trap": 4635,
      "cording": 4636,
      "consum": 4637,
      "TION": 4638,
      "IGHT": 4639,
      "quiet": 4640,
      "favour": 4641,
      "wheel": 4642,
      "FROM": 4643,
      "ague": 4644,
      "ester": 4645,
      "ONLY": 4646,
      "mechan": 4647,
      "pocket": 4648,
      "poetry": 4649,
      "Fred": 4650,
      "fro": 4651,
      "jam": 4652,
      "holding": 4653,
      "IM": 4654,
      "offic": 4655,
      "----": 4656,
      "training": 4657,
      "pat": 4658,
      "OUN": 4659,
      "element": 4660,
      "Scar": 4661,
      "sole": 4662,
      "wonderfully": 4663,
      "Brother": 4664,
      "Film": 4665,
      "GH": 4666,
      "Su": 4667,
      "ee": 4668,
      "select": 4669,
      "ysis": 4670,
      "execut": 4671,
      "suspect": 4672,
      "Add": 4673,
      "CL": 4674,
      "wester": 4675,
      "industry": 4676,
      "Thomas": 4677,
      "wont": 4678,
      "opener": 4679,
      "intel": 4680,
      "everywhere": 4681,
      "additional": 4682,
      "successful": 4683,
      "manufacturer": 4684,
      "happening": 4685,
      "rented": 4686,
      "opport": 4687,
      "resource": 4688,
      "idden": 4689,
      "prompt": 4690,
      "Ir": 4691,
      "IVE": 4692,
      "lers": 4693,
      "neck": 4694,
      "tears": 4695,
      "sings": 4696,
      "letters": 4697,
      "clothes": 4698,
      "Stone": 4699,
      "grace": 4700,
      "biography": 4701,
      "stretch": 4702,
      ":)\"}": 4703,
      "Right": 4704,
      "pin": 4705,
      "bound": 4706,
      "nons": 4707,
      "zed": 4708,
      "inese": 4709,
      "areas": 4710,
      "rey": 4711,
      "redi": 4712,
      "thru": 4713,
      "broad": 4714,
      "slowly": 4715,
      "ote": 4716,
      "anda": 4717,
      "complic": 4718,
      "stein": 4719,
      "comparison": 4720,
      "substance": 4721,
      "vit": 4722,
      "beha": 4723,
      "sounding": 4724,
      "hoped": 4725,
      "pun": 4726,
      "motiv": 4727,
      "...]": 4728,
      "memorable": 4729,
      "Jeff": 4730,
      "advanced": 4731,
      "Sw": 4732,
      "lady": 4733,
      "intense": 4734,
      "ively": 4735,
      "checked": 4736,
      "lucky": 4737,
      "agraph": 4738,
      "Wild": 4739,
      "pal": 4740,
      "feat": 4741,
      "searching": 4742,
      "walking": 4743,
      "kins": 4744,
      "thod": 4745,
      "west": 4746,
      "explains": 4747,
      "quot": 4748,
      "error": 4749,
      "spl": 4750,
      "HOW": 4751,
      "struggle": 4752,
      "Fire": 4753,
      "nment": 4754,
      "Recommend": 4755,
      "beginner": 4756,
      "Harr": 4757,
      "Ob": 4758,
      "[...]": 4759,
      "ummy": 4760,
      "satisfying": 4761,
      "icate": 4762,
      "quar": 4763,
      "impression": 4764,
      "Ell": 4765,
      "patter": 4766,
      "joint": 4767,
      "soci": 4768,
      "magn": 4769,
      "Sometimes": 4770,
      "redeem": 4771,
      "Billy": 4772,
      "Vis": 4773,
      "ups": 4774,
      "bles": 4775,
      "marri": 4776,
      "shots": 4777,
      "asp": 4778,
      "tail": 4779,
      "subtle": 4780,
      "gs": 4781,
      "peace": 4782,
      "detect": 4783,
      "ginal": 4784,
      "previously": 4785,
      "dimens": 4786,
      "television": 4787,
      "Giver": 4788,
      "Made": 4789,
      "PP": 4790,
      "rix": 4791,
      "ICE": 4792,
      "Micro": 4793,
      "Check": 4794,
      "virt": 4795,
      "religion": 4796,
      "MU": 4797,
      "vey": 4798,
      "sections": 4799,
      "tel": 4800,
      "managed": 4801,
      "handy": 4802,
      "ingredi": 4803,
      "host": 4804,
      "subscri": 4805,
      "redu": 4806,
      "atmo": 4807,
      "gem": 4808,
      "tools": 4809,
      "hole": 4810,
      "english": 4811,
      "hon": 4812,
      "enjoys": 4813,
      "alternative": 4814,
      "Bot": 4815,
      "Ori": 4816,
      "unity": 4817,
      "spending": 4818,
      "news": 4819,
      "relevant": 4820,
      "22": 4821,
      "riff": 4822,
      "produce": 4823,
      "horse": 4824,
      "\")": 4825,
      "assum": 4826,
      "Moon": 4827,
      "describes": 4828,
      "exerc": 4829,
      "compilation": 4830,
      "Cent": 4831,
      "lessons": 4832,
      "drug": 4833,
      "Uni": 4834,
      "bike": 4835,
      "million": 4836,
      "explanation": 4837,
      "Adam": 4838,
      "bland": 4839,
      "creating": 4840,
      "Without": 4841,
      "electric": 4842,
      "health": 4843,
      "Complete": 4844,
      "Turn": 4845,
      "gang": 4846,
      "stone": 4847,
      "STAR": 4848,
      "paragraph": 4849,
      "anticip": 4850,
      "Pict": 4851,
      "damaged": 4852,
      "constant": 4853,
      "Call": 4854,
      "Lad": 4855,
      "kien": 4856,
      "Alex": 4857,
      "Cons": 4858,
      "MM": 4859,
      "pres": 4860,
      "sucked": 4861,
      "Price": 4862,
      "currently": 4863,
      "Despite": 4864,
      "PR": 4865,
      "Young": 4866,
      "ugly": 4867,
      "???": 4868,
      "ARD": 4869,
      "temper": 4870,
      "absor": 4871,
      "Sa": 4872,
      "desk": 4873,
      "concerned": 4874,
      "tin": 4875,
      "wet": 4876,
      "ville": 4877,
      "email": 4878,
      "greatly": 4879,
      "extended": 4880,
      "SOME": 4881,
      "Catholic": 4882,
      "MAN": 4883,
      "Pie": 4884,
      "mature": 4885,
      "aser": 4886,
      "presentation": 4887,
      "oga": 4888,
      "killing": 4889,
      "Yet": 4890,
      "ancy": 4891,
      "married": 4892,
      "spiritual": 4893,
      "rarely": 4894,
      "mission": 4895,
      "ountain": 4896,
      "false": 4897,
      "None": 4898,
      "chor": 4899,
      "gore": 4900,
      "formula": 4901,
      "zzzz": 4902,
      "500": 4903,
      "Cam": 4904,
      "Den": 4905,
      "Dar": 4906,
      "Mark": 4907,
      "aside": 4908,
      "outs": 4909,
      "ulation": 4910,
      "heroine": 4911,
      "Awful": 4912,
      "History": 4913,
      "Du": 4914,
      "lor": 4915,
      "heads": 4916,
      "paying": 4917,
      "FIN": 4918,
      "ell": 4919,
      "tort": 4920,
      "military": 4921,
      "Hob": 4922,
      "ost": 4923,
      "forth": 4924,
      "Brad": 4925,
      "Tech": 4926,
      "gree": 4927,
      "forgotten": 4928,
      "mini": 4929,
      "England": 4930,
      "Enter": 4931,
      "Jackson": 4932,
      "Tra": 4933,
      "arrange": 4934,
      "Julia": 4935,
      "Eliza": 4936,
      "remake": 4937,
      "acle": 4938,
      "presents": 4939,
      "Simple": 4940,
      "remains": 4941,
      ":-": 4942,
      "data": 4943,
      "mus": 4944,
      "construction": 4945,
      "breaks": 4946,
      "mit": 4947,
      "nic": 4948,
      "everybody": 4949,
      "attempts": 4950,
      "window": 4951,
      "Sto": 4952,
      "timeless": 4953,
      "embarr": 4954,
      "empty": 4955,
      "ads": 4956,
      "whom": 4957,
      "introduced": 4958,
      "Cra": 4959,
      "Ta": 4960,
      "Ul": 4961,
      "ini": 4962,
      "captiv": 4963,
      "atmosp": 4964,
      "router": 4965,
      "weet": 4966,
      "clar": 4967,
      "moral": 4968,
      "Girl": 4969,
      "Gener": 4970,
      "Sum": 4971,
      "asking": 4972,
      "assign": 4973,
      "Stay": 4974,
      "directly": 4975,
      "repeat": 4976,
      "Tolkien": 4977,
      "Return": 4978,
      "Dig": 4979,
      "Pres": 4980,
      "neigh": 4981,
      "intellect": 4982,
      "Cook": 4983,
      "eight": 4984,
      "iP": 4985,
      "charged": 4986,
      "mainly": 4987,
      "impact": 4988,
      "occur": 4989,
      "95": 4990,
      "BR": 4991,
      "WR": 4992,
      "corpor": 4993,
      "Queen": 4994,
      "Hen": 4995,
      "LA": 4996,
      "uster": 4997,
      "specially": 4998,
      "talks": 4999,
      "++": 5000,
      "Ext": 5001,
      "Person": 5002,
      "Ver": 5003,
      "titled": 5004,
      "signal": 5005,
      "continued": 5006,
      "pulled": 5007,
      "Funny": 5008,
      "Lau": 5009,
      "Set": 5010,
      "Space": 5011,
      "block": 5012,
      "titude": 5013,
      "Grand": 5014,
      "affect": 5015,
      "Ken": 5016,
      "firm": 5017,
      "trilogy": 5018,
      "ONEY": 5019,
      "atives": 5020,
      "Air": 5021,
      "viewer": 5022,
      "USA": 5023,
      "directed": 5024,
      "legs": 5025,
      "ibility": 5026,
      "tes": 5027,
      "becoming": 5028,
      "oty": 5029,
      "reasonable": 5030,
      "laughs": 5031,
      "behavi": 5032,
      "Video": 5033,
      "stor": 5034,
      "stunning": 5035,
      "worry": 5036,
      "inding": 5037,
      "INT": 5038,
      "laughed": 5039,
      "calls": 5040,
      "combination": 5041,
      "bowl": 5042,
      "inser": 5043,
      "apply": 5044,
      "compat": 5045,
      "excuse": 5046,
      "delightful": 5047,
      "sis": 5048,
      "vivid": 5049,
      "asha": 5050,
      "mistakes": 5051,
      "marks": 5052,
      "analysis": 5053,
      "Ha": 5054,
      "cul": 5055,
      "sque": 5056,
      "belong": 5057,
      "measure": 5058,
      "prevent": 5059,
      "HP": 5060,
      "Haw": 5061,
      "beth": 5062,
      "entially": 5063,
      "acceptable": 5064,
      "Int": 5065,
      "Tar": 5066,
      "Vol": 5067,
      "bie": 5068,
      "ern": 5069,
      "pray": 5070,
      "overly": 5071,
      "cient": 5072,
      "fortunate": 5073,
      "ictionary": 5074,
      "Gris": 5075,
      "promise": 5076,
      "toward": 5077,
      "hey": 5078,
      "heav": 5079,
      "umbs": 5080,
      "endor": 5081,
      "charm": 5082,
      "serve": 5083,
      "finger": 5084,
      "intriguing": 5085,
      "HOR": 5086,
      "zing": 5087,
      "ripped": 5088,
      "usable": 5089,
      "leads": 5090,
      "Gra": 5091,
      "YE": 5092,
      "ication": 5093,
      "wides": 5094,
      "styles": 5095,
      "Lewis": 5096,
      "cape": 5097,
      "yeah": 5098,
      "mirror": 5099,
      "charming": 5100,
      "conflict": 5101,
      "closed": 5102,
      "judge": 5103,
      "pill": 5104,
      "orgeous": 5105,
      "Cla": 5106,
      "Hey": 5107,
      "speaker": 5108,
      "adventures": 5109,
      "settings": 5110,
      "Bu": 5111,
      "MI": 5112,
      "Pu": 5113,
      "thous": 5114,
      "berg": 5115,
      "Boys": 5116,
      "3D": 5117,
      "Fam": 5118,
      "MONEY": 5119,
      "tor": 5120,
      "Chinese": 5121,
      "sadly": 5122,
      "knife": 5123,
      "jack": 5124,
      "ALBU": 5125,
      "Bruce": 5126,
      "prepared": 5127,
      "remarkable": 5128,
      "prota": 5129,
      "disco": 5130,
      "Think": 5131,
      "whatso": 5132,
      "olar": 5133,
      "blown": 5134,
      "warned": 5135,
      "mixer": 5136,
      "organized": 5137,
      "BIG": 5138,
      "Cal": 5139,
      "tie": 5140,
      "upgrade": 5141,
      "sexy": 5142,
      "respond": 5143,
      "dol": 5144,
      "rhyth": 5145,
      "Potter": 5146,
      "marriage": 5147,
      "..\"}": 5148,
      "Cross": 5149,
      "orche": 5150,
      "ava": 5151,
      "versal": 5152,
      "politics": 5153,
      "Wrong": 5154,
      "ral": 5155,
      "rical": 5156,
      "arily": 5157,
      "Maiden": 5158,
      "MP3": 5159,
      "UT": 5160,
      "pool": 5161,
      "zomb": 5162,
      "upset": 5163,
      "Make": 5164,
      "cartoon": 5165,
      "heck": 5166,
      "ghost": 5167,
      "clich": 5168,
      "Stars": 5169,
      "plugged": 5170,
      "Grisham": 5171,
      "cash": 5172,
      "lip": 5173,
      "term": 5174,
      "shad": 5175,
      "dropped": 5176,
      "ulty": 5177,
      "Williams": 5178,
      "Ba": 5179,
      "mend": 5180,
      "pregn": 5181,
      "cares": 5182,
      "Purch": 5183,
      "opera": 5184,
      "saving": 5185,
      "choices": 5186,
      "porary": 5187,
      "Ryan": 5188,
      "complicated": 5189,
      "EL": 5190,
      "eating": 5191,
      "pound": 5192,
      "raz": 5193,
      "worthwhile": 5194,
      "factory": 5195,
      "driver": 5196,
      "XO": 5197,
      "iring": 5198,
      "acts": 5199,
      "acket": 5200,
      "USE": 5201,
      "faster": 5202,
      "whatsoever": 5203,
      "sending": 5204,
      "tales": 5205,
      "Link": 5206,
      "scent": 5207,
      "therefore": 5208,
      "Unless": 5209,
      "Wo": 5210,
      "awhile": 5211,
      "lying": 5212,
      "placing": 5213,
      "regarding": 5214,
      "thrilled": 5215,
      "sized": 5216,
      "tear": 5217,
      "ERS": 5218,
      "Special": 5219,
      "contacted": 5220,
      "Angel": 5221,
      "Street": 5222,
      "recieved": 5223,
      "ionally": 5224,
      "acular": 5225,
      "singers": 5226,
      "stays": 5227,
      "belt": 5228,
      "unrealistic": 5229,
      "lfriend": 5230,
      "classical": 5231,
      "Almost": 5232,
      "movement": 5233,
      "clip": 5234,
      "Ra": 5235,
      "ology": 5236,
      "pon": 5237,
      "ental": 5238,
      "treatment": 5239,
      "spring": 5240,
      "Dep": 5241,
      "Fi": 5242,
      "Lon": 5243,
      "San": 5244,
      "grill": 5245,
      "hol": 5246,
      "angry": 5247,
      "ictor": 5248,
      "ught": 5249,
      "wie": 5250,
      "liber": 5251,
      "blades": 5252,
      "frequently": 5253,
      "Mach": 5254,
      "proves": 5255,
      "reek": 5256,
      "sequences": 5257,
      "icious": 5258,
      "seven": 5259,
      "tains": 5260,
      "network": 5261,
      "complaints": 5262,
      "clue": 5263,
      "basis": 5264,
      "damn": 5265,
      "Cheap": 5266,
      "terribly": 5267,
      "neighbor": 5268,
      "AK": 5269,
      "DID": 5270,
      "thro": 5271,
      "doors": 5272,
      "cris": 5273,
      "solved": 5274,
      "ACT": 5275,
      "philosophy": 5276,
      "government": 5277,
      "locks": 5278,
      "cents": 5279,
      "equip": 5280,
      "sensitive": 5281,
      "improvement": 5282,
      "Dam": 5283,
      "categ": 5284,
      "ann": 5285,
      "icing": 5286,
      "IDE": 5287,
      "island": 5288,
      "cock": 5289,
      "groo": 5290,
      "80s": 5291,
      "capture": 5292,
      "removed": 5293,
      "stereo": 5294,
      "ceived": 5295,
      "Pop": 5296,
      "teens": 5297,
      "Which": 5298,
      "versity": 5299,
      "animation": 5300,
      "steps": 5301,
      "exercise": 5302,
      "Corn": 5303,
      "Brook": 5304,
      "critical": 5305,
      "insightful": 5306,
      "burned": 5307,
      "Looks": 5308,
      "App": 5309,
      "BOR": 5310,
      "Gen": 5311,
      "Law": 5312,
      "Ve": 5313,
      "anson": 5314,
      "values": 5315,
      "Guide": 5316,
      "nonsense": 5317,
      "hic": 5318,
      "witty": 5319,
      "adequ": 5320,
      "personality": 5321,
      "planet": 5322,
      "harmon": 5323,
      "refreshing": 5324,
      "MUCH": 5325,
      "protagon": 5326,
      "oul": 5327,
      "meat": 5328,
      "bute": 5329,
      "aker": 5330,
      "Band": 5331,
      "served": 5332,
      "monitor": 5333,
      "options": 5334,
      "performed": 5335,
      "dancing": 5336,
      "exercises": 5337,
      "Bon": 5338,
      "Cat": 5339,
      "Rad": 5340,
      "itz": 5341,
      "encounter": 5342,
      "symbo": 5343,
      "widescreen": 5344,
      "Rus": 5345,
      "crow": 5346,
      "Trans": 5347,
      "Audio": 5348,
      "mber": 5349,
      "remix": 5350,
      "deeper": 5351,
      "frank": 5352,
      "gling": 5353,
      "legend": 5354,
      "apping": 5355,
      "slip": 5356,
      "fection": 5357,
      "plement": 5358,
      "rules": 5359,
      "East": 5360,
      "hun": 5361,
      "whel": 5362,
      "shirt": 5363,
      "ateur": 5364,
      "asty": 5365,
      "attached": 5366,
      "sample": 5367,
      "JO": 5368,
      "Mom": 5369,
      "interviews": 5370,
      "excite": 5371,
      "Quick": 5372,
      "cars": 5373,
      "exas": 5374,
      "monster": 5375,
      "MORE": 5376,
      "requires": 5377,
      "attack": 5378,
      "Know": 5379,
      "Tit": 5380,
      "boat": 5381,
      "receiver": 5382,
      "experiment": 5383,
      "Hopefully": 5384,
      "lu": 5385,
      "ifts": 5386,
      "prove": 5387,
      "agers": 5388,
      "embarrass": 5389,
      "pup": 5390,
      "som": 5391,
      "enge": 5392,
      "INK": 5393,
      "insult": 5394,
      "wasting": 5395,
      "attractive": 5396,
      "equipment": 5397,
      "roles": 5398,
      "avis": 5399,
      "avor": 5400,
      "ache": 5401,
      "newer": 5402,
      "understood": 5403,
      "dollar": 5404,
      "critics": 5405,
      "Gi": 5406,
      "escape": 5407,
      "iche": 5408,
      "pets": 5409,
      "chet": 5410,
      "ficial": 5411,
      "****": 5412,
      "equally": 5413,
      "micro": 5414,
      "integr": 5415,
      "Apple": 5416,
      "WN": 5417,
      "Something": 5418,
      "western": 5419,
      "Six": 5420,
      "dirty": 5421,
      "swi": 5422,
      "keting": 5423,
      "deb": 5424,
      "ause": 5425,
      "sales": 5426,
      "steel": 5427,
      "girlfriend": 5428,
      "loaded": 5429,
      "WOW": 5430,
      "Yeah": 5431,
      "Russian": 5432,
      "75": 5433,
      "hint": 5434,
      "lousy": 5435,
      "method": 5436,
      "ceed": 5437,
      "LED": 5438,
      "beginners": 5439,
      "damage": 5440,
      "balls": 5441,
      "animal": 5442,
      "improved": 5443,
      "violent": 5444,
      "knock": 5445,
      "Gun": 5446,
      "Sing": 5447,
      "dar": 5448,
      "scared": 5449,
      "majority": 5450,
      "creepy": 5451,
      "Vin": 5452,
      "lam": 5453,
      "dealing": 5454,
      "dreams": 5455,
      "tapes": 5456,
      "opportunity": 5457,
      "OXO": 5458,
      "uit": 5459,
      "enh": 5460,
      "taught": 5461,
      "Rober": 5462,
      "Fran": 5463,
      "fabric": 5464,
      "demonstr": 5465,
      "Sub": 5466,
      "solve": 5467,
      "OOOO": 5468,
      "speaking": 5469,
      "Son": 5470,
      "bin": 5471,
      "dread": 5472,
      "ours": 5473,
      "convincing": 5474,
      "Lin": 5475,
      "Len": 5476,
      "biz": 5477,
      "shoot": 5478,
      "Note": 5479,
      "sentence": 5480,
      "melodies": 5481,
      "Austen": 5482,
      "si": 5483,
      "leather": 5484,
      "desper": 5485,
      "recognize": 5486,
      "Luck": 5487,
      "dum": 5488,
      "aga": 5489,
      "deeply": 5490,
      "devot": 5491,
      "Dou": 5492,
      "Oscar": 5493,
      "rere": 5494,
      "ASS": 5495,
      "medium": 5496,
      "Kay": 5497,
      "Disc": 5498,
      "seasons": 5499,
      "niest": 5500,
      "Coun": 5501,
      "VEN": 5502,
      "dic": 5503,
      "..\",": 5504,
      "Work": 5505,
      "Books": 5506,
      "vampire": 5507,
      "inv": 5508,
      "ators": 5509,
      "ander": 5510,
      "units": 5511,
      "carefully": 5512,
      "supporting": 5513,
      "ALBUM": 5514,
      "Bes": 5515,
      "enthus": 5516,
      "asonic": 5517,
      "faces": 5518,
      "stereoty": 5519,
      "Hobbit": 5520,
      "tree": 5521,
      ".....\",": 5522,
      "unusual": 5523,
      "rive": 5524,
      "soap": 5525,
      "scare": 5526,
      "solut": 5527,
      "fairy": 5528,
      "utterly": 5529,
      "gentle": 5530,
      "physical": 5531,
      "Through": 5532,
      "classes": 5533,
      "closer": 5534,
      "shocked": 5535,
      "Skip": 5536,
      "gorgeous": 5537,
      "yard": 5538,
      "Three": 5539,
      "dub": 5540,
      "taining": 5541,
      "DOES": 5542,
      "WORST": 5543,
      "survive": 5544,
      "Elizabeth": 5545,
      "Happy": 5546,
      "toss": 5547,
      "Prof": 5548,
      "efforts": 5549,
      "secure": 5550,
      "Microsoft": 5551,
      "Lar": 5552,
      "Nat": 5553,
      "aim": 5554,
      "clim": 5555,
      "somebody": 5556,
      "hanging": 5557,
      "Gri": 5558,
      "construct": 5559,
      "llar": 5560,
      "genu": 5561,
      "kindle": 5562,
      "compatible": 5563,
      ",,": 5564,
      "EP": 5565,
      "cats": 5566,
      "owner": 5567,
      "Dont": 5568,
      "inct": 5569,
      "beach": 5570,
      "ches": 5571,
      "planning": 5572,
      "cake": 5573,
      "caused": 5574,
      "articles": 5575,
      "praise": 5576,
      "redeeming": 5577,
      "Cali": 5578,
      "Full": 5579,
      "OTHER": 5580,
      "igg": 5581,
      "follows": 5582,
      "Track": 5583,
      "afford": 5584,
      "slide": 5585,
      "portrayed": 5586,
      "Dy": 5587,
      "Kar": 5588,
      "cies": 5589,
      "context": 5590,
      "active": 5591,
      "rupt": 5592,
      "OUND": 5593,
      "600": 5594,
      "Jam": 5595,
      "eager": 5596,
      "aran": 5597,
      "sentences": 5598,
      "skill": 5599,
      "dangerous": 5600,
      "merely": 5601,
      "URE": 5602,
      "arms": 5603,
      "amusing": 5604,
      "Alice": 5605,
      "priv": 5606,
      "ultimate": 5607,
      "Ali": 5608,
      "GR": 5609,
      "Mex": 5610,
      "Same": 5611,
      "Top": 5612,
      "Canon": 5613,
      "Kevin": 5614,
      "Julie": 5615,
      "consistent": 5616,
      "electronic": 5617,
      "rack": 5618,
      "wow": 5619,
      "chron": 5620,
      "christ": 5621,
      "blur": 5622,
      "Jonas": 5623,
      "GA": 5624,
      "Jer": 5625,
      "Win": 5626,
      "ert": 5627,
      "terror": 5628,
      "teaches": 5629,
      "educational": 5630,
      "WAR": 5631,
      "rat": 5632,
      "icks": 5633,
      "guest": 5634,
      "leader": 5635,
      "promised": 5636,
      "customers": 5637,
      "vinyl": 5638,
      "appreciated": 5639,
      "brothers": 5640,
      "failure": 5641,
      "ultimately": 5642,
      "Kill": 5643,
      "Pho": 5644,
      "gers": 5645,
      "rise": 5646,
      "edom": 5647,
      "setup": 5648,
      "yellow": 5649,
      "Charlie": 5650,
      "reminded": 5651,
      "timate": 5652,
      "WWI": 5653,
      "gay": 5654,
      "stinks": 5655,
      "depart": 5656,
      "doctor": 5657,
      "picking": 5658,
      "groups": 5659,
      "excitement": 5660,
      "Hand": 5661,
      "update": 5662,
      "sons": 5663,
      "convenient": 5664,
      "IES": 5665,
      "Net": 5666,
      "ka": 5667,
      "loo": 5668,
      "slo": 5669,
      "wart": 5670,
      "washer": 5671,
      "manages": 5672,
      "THAN": 5673,
      "twenty": 5674,
      "Jean": 5675,
      "Da": 5676,
      "WW": 5677,
      "nine": 5678,
      "snow": 5679,
      "winter": 5680,
      "neat": 5681,
      "portion": 5682,
      "ingredients": 5683,
      "BY": 5684,
      "bird": 5685,
      "entious": 5686,
      "uncomfortable": 5687,
      "humorous": 5688,
      "channel": 5689,
      "enthusi": 5690,
      "98": 5691,
      "HU": 5692,
      "Mal": 5693,
      "isy": 5694,
      "chill": 5695,
      "makers": 5696,
      "stayed": 5697,
      "temperature": 5698,
      "mistry": 5699,
      "medical": 5700,
      "creates": 5701,
      "insights": 5702,
      "fixed": 5703,
      "folk": 5704,
      "Songs": 5705,
      "Sweet": 5706,
      "oman": 5707,
      "recommendation": 5708,
      "!!!!!\",": 5709,
      "Leg": 5710,
      "police": 5711,
      "Mind": 5712,
      "ime": 5713,
      "losing": 5714,
      "quir": 5715,
      "inspiration": 5716,
      "overrated": 5717,
      "investig": 5718,
      "Sadly": 5719,
      "AF": 5720,
      "Fall": 5721,
      "Next": 5722,
      "Sar": 5723,
      "Water": 5724,
      "uality": 5725,
      "chant": 5726,
      "obsess": 5727,
      "Makes": 5728,
      "specif": 5729,
      "Palm": 5730,
      "harder": 5731,
      "poses": 5732,
      "Eragon": 5733,
      "dimensional": 5734,
      "Pol": 5735,
      "reput": 5736,
      "crew": 5737,
      "surd": 5738,
      "OUS": 5739,
      "Americans": 5740,
      "appearance": 5741,
      "discussion": 5742,
      "Hy": 5743,
      "HAS": 5744,
      "stom": 5745,
      "producers": 5746,
      "swing": 5747,
      "treasure": 5748,
      "advise": 5749,
      "Actually": 5750,
      "shooting": 5751,
      ":(": 5752,
      "Hum": 5753,
      "vy": 5754,
      "todd": 5755,
      "Small": 5756,
      "32": 5757,
      "punch": 5758,
      "rely": 5759,
      "disaster": 5760,
      "grain": 5761,
      "cali": 5762,
      "vibr": 5763,
      "contained": 5764,
      "brands": 5765,
      "Santana": 5766,
      "BORING": 5767,
      "Vers": 5768,
      "eve": 5769,
      "kward": 5770,
      "contents": 5771,
      "distr": 5772,
      "Church": 5773,
      "surely": 5774,
      "suggested": 5775,
      "WHO": 5776,
      "teeth": 5777,
      "Italian": 5778,
      "favourite": 5779,
      "Cut": 5780,
      "Rod": 5781,
      "soooo": 5782,
      "anity": 5783,
      "ura": 5784,
      "hardware": 5785,
      "structure": 5786,
      "Robin": 5787,
      "Fast": 5788,
      "cance": 5789,
      "awa": 5790,
      "Probably": 5791,
      "printing": 5792,
      "photograph": 5793,
      "models": 5794,
      "environment": 5795,
      "Tw": 5796,
      "pic": 5797,
      "rice": 5798,
      "omin": 5799,
      "prison": 5800,
      "cycle": 5801,
      "alien": 5802,
      "challenging": 5803,
      ".-": 5804,
      "FUN": 5805,
      "Jazz": 5806,
      "static": 5807,
      "noted": 5808,
      "trade": 5809,
      "Unlike": 5810,
      "finishing": 5811,
      "flaws": 5812,
      "materials": 5813,
      "blah": 5814,
      "Wheel": 5815,
      "Sher": 5816,
      "render": 5817,
      "enlight": 5818,
      "simpl": 5819,
      "evidence": 5820,
      "NEW": 5821,
      "Mir": 5822,
      "ITY": 5823,
      "decision": 5824,
      "ustral": 5825,
      "disapointed": 5826,
      "poet": 5827,
      "Greatest": 5828,
      "cinemat": 5829,
      "princi": 5830,
      "55": 5831,
      "Cru": 5832,
      "Especially": 5833,
      "Pear": 5834,
      "expl": 5835,
      "pressed": 5836,
      "Lost": 5837,
      "ART": 5838,
      "spray": 5839,
      "irritating": 5840,
      "bible": 5841,
      "lads": 5842,
      "boss": 5843,
      "holiday": 5844,
      "magical": 5845,
      "region": 5846,
      "delivers": 5847,
      "lifting": 5848,
      "atmosphere": 5849,
      "Family": 5850,
      ".(": 5851,
      "Texas": 5852,
      "vehic": 5853,
      "ulting": 5854,
      "School": 5855,
      "magnific": 5856,
      "Roberts": 5857,
      "Creat": 5858,
      "Eyes": 5859,
      "Iron": 5860,
      "Mid": 5861,
      "Victor": 5862,
      "pit": 5863,
      "rings": 5864,
      "request": 5865,
      "fest": 5866,
      "itions": 5867,
      "sky": 5868,
      "nightmare": 5869,
      "SEE": 5870,
      "researched": 5871,
      "captures": 5872,
      "scientific": 5873,
      "BS": 5874,
      "mild": 5875,
      "inexpensive": 5876,
      "orter": 5877,
      "annoy": 5878,
      "families": 5879,
      "besides": 5880,
      "challenge": 5881,
      "Children": 5882,
      "relatively": 5883,
      "Cornwell": 5884,
      "genuine": 5885,
      "trave": 5886,
      "truck": 5887,
      "blend": 5888,
      "Stand": 5889,
      "waist": 5890,
      "Order": 5891,
      "recipe": 5892,
      "washed": 5893,
      "glasses": 5894,
      "spectacular": 5895,
      "bath": 5896,
      "fright": 5897,
      "deals": 5898,
      "timely": 5899,
      "desire": 5900,
      "2007": 5901,
      "WORK": 5902,
      "North": 5903,
      "remastered": 5904,
      "Clar": 5905,
      "Favor": 5906,
      "Put": 5907,
      "zilla": 5908,
      "haunting": 5909,
      "abrid": 5910,
      "math": 5911,
      "updated": 5912,
      "charging": 5913,
      "crappy": 5914,
      "journal": 5915,
      "Found": 5916,
      "Rings": 5917,
      "amateur": 5918,
      "dozen": 5919,
      "disagree": 5920,
      "cheese": 5921,
      "Andre": 5922,
      "curious": 5923,
      "winner": 5924,
      "files": 5925,
      "gross": 5926,
      "anx": 5927,
      "lift": 5928,
      "bub": 5929,
      "Besides": 5930,
      "Hop": 5931,
      "HER": 5932,
      "UK": 5933,
      "WOULD": 5934,
      "aled": 5935,
      "greater": 5936,
      "crimin": 5937,
      "capable": 5938,
      "LOT": 5939,
      "deserved": 5940,
      "viewed": 5941,
      "climax": 5942,
      "Listen": 5943,
      "Hun": 5944,
      "funniest": 5945,
      "BET": 5946,
      "Digital": 5947,
      "Fort": 5948,
      "HH": 5949,
      "MUS": 5950,
      "TAL": 5951,
      "tension": 5952,
      "stress": 5953,
      "overview": 5954,
      "hopefully": 5955,
      "instruction": 5956,
      "tremend": 5957,
      "Author": 5958,
      "Bal": 5959,
      "lyn": 5960,
      "aks": 5961,
      "packaged": 5962,
      "bang": 5963,
      "matic": 5964,
      "pants": 5965,
      "rever": 5966,
      "rog": 5967,
      "Shame": 5968,
      "ashamed": 5969,
      "proud": 5970,
      "explanations": 5971,
      "bish": 5972,
      "rust": 5973,
      "thent": 5974,
      "kinds": 5975,
      "Shar": 5976,
      "Charles": 5977,
      "fluff": 5978,
      "dictionary": 5979,
      "eli": 5980,
      "edit": 5981,
      "iders": 5982,
      "Henry": 5983,
      "Extreme": 5984,
      "Hot": 5985,
      "cds": 5986,
      "sin": 5987,
      "distort": 5988,
      "circum": 5989,
      "protection": 5990,
      "drugs": 5991,
      "dryer": 5992,
      "tastes": 5993,
      "arrangements": 5994,
      "OME": 5995,
      "grip": 5996,
      "rage": 5997,
      "tial": 5998,
      "babies": 5999,
      "sticks": 6000,
      "wore": 6001,
      "bringing": 6002,
      "roller": 6003,
      "4th": 6004,
      "Sho": 6005,
      "Von": 6006,
      "WAST": 6007,
      "udo": 6008,
      "alth": 6009,
      "dece": 6010,
      "subtitles": 6011,
      "creativity": 6012,
      "alike": 6013,
      "viously": 6014,
      "screws": 6015,
      "camp": 6016,
      "expert": 6017,
      "Austral": 6018,
      "Four": 6019,
      "cand": 6020,
      "hidden": 6021,
      "colate": 6022,
      "marketing": 6023,
      "OS": 6024,
      "Washing": 6025,
      "jer": 6026,
      "arre": 6027,
      "owning": 6028,
      "Road": 6029,
      "Short": 6030,
      "profound": 6031,
      "achieve": 6032,
      "Jose": 6033,
      "Wars": 6034,
      "fornia": 6035,
      "awkward": 6036,
      "describing": 6037,
      "balance": 6038,
      "statement": 6039,
      "!).": 6040,
      "Ox": 6041,
      "bent": 6042,
      "associ": 6043,
      "iron": 6044,
      "ifer": 6045,
      "overwhel": 6046,
      "helping": 6047,
      "Blood": 6048,
      "sequence": 6049,
      "clips": 6050,
      "windows": 6051,
      "advertising": 6052,
      "separate": 6053,
      "behavior": 6054,
      "BB": 6055,
      "bill": 6056,
      "pag": 6057,
      "nobody": 6058,
      "absurd": 6059,
      "ppers": 6060,
      "NOTHING": 6061,
      "healthy": 6062,
      "lla": 6063,
      "lly": 6064,
      "weather": 6065,
      "autom": 6066,
      "Thought": 6067,
      "calling": 6068,
      "portrayal": 6069,
      "flying": 6070,
      ":)": 6071,
      "Cast": 6072,
      "Dave": 6073,
      "Sal": 6074,
      "concent": 6075,
      "ading": 6076,
      "define": 6077,
      "activ": 6078,
      "brut": 6079,
      "20th": 6080,
      "intelligence": 6081,
      "Hol": 6082,
      "Lyn": 6083,
      "wine": 6084,
      "ancient": 6085,
      "aylor": 6086,
      "70s": 6087,
      "sleeping": 6088,
      "ABOUT": 6089,
      "Recommended": 6090,
      "Die": 6091,
      "Oc": 6092,
      "gro": 6093,
      "tha": 6094,
      "forms": 6095,
      "acade": 6096,
      "chemistry": 6097,
      "smile": 6098,
      "SONG": 6099,
      "asks": 6100,
      "bore": 6101,
      "filmed": 6102,
      "laughter": 6103,
      "frustrated": 6104,
      "Basically": 6105,
      "African": 6106,
      "Truly": 6107,
      "GI": 6108,
      "cab": 6109,
      "nes": 6110,
      "sor": 6111,
      "cele": 6112,
      "degree": 6113,
      "umin": 6114,
      "hardcore": 6115,
      "scenery": 6116,
      "spots": 6117,
      "Seriously": 6118,
      "MUSIC": 6119,
      "21": 6120,
      "33": 6121,
      "gifts": 6122,
      "tall": 6123,
      "halfway": 6124,
      "Picture": 6125,
      "Dif": 6126,
      "Kitchen": 6127,
      "Sus": 6128,
      "bility": 6129,
      "hest": 6130,
      "HAD": 6131,
      "Jud": 6132,
      "SI": 6133,
      "height": 6134,
      "assume": 6135,
      "touched": 6136,
      "Soul": 6137,
      "thentic": 6138,
      "pitch": 6139,
      "fellow": 6140,
      "basket": 6141,
      "influence": 6142,
      "28": 6143,
      "Crow": 6144,
      "MC": 6145,
      "bone": 6146,
      "lished": 6147,
      "remembered": 6148,
      "teenager": 6149,
      "comprehensive": 6150,
      "Cool": 6151,
      "dut": 6152,
      "encourage": 6153,
      "metho": 6154,
      "penny": 6155,
      "TOO": 6156,
      "resolution": 6157,
      "spell": 6158,
      "systems": 6159,
      "filler": 6160,
      "Washington": 6161,
      "DA": 6162,
      "Mike": 6163,
      "Vi": 6164,
      "vendor": 6165,
      "motion": 6166,
      "ESOME": 6167,
      "colorful": 6168,
      "photography": 6169,
      "UE": 6170,
      "forgot": 6171,
      "outdated": 6172,
      "ament": 6173,
      "typos": 6174,
      "shel": 6175,
      "talked": 6176,
      "vari": 6177,
      "Carol": 6178,
      "Western": 6179,
      "sports": 6180,
      "contrast": 6181,
      "iPod": 6182,
      "Friend": 6183,
      "cha": 6184,
      "sop": 6185,
      "dynam": 6186,
      "warming": 6187,
      "casset": 6188,
      "COMP": 6189,
      "esterday": 6190,
      "intellectual": 6191,
      "AGE": 6192,
      "Fla": 6193,
      "Tor": 6194,
      "hose": 6195,
      "witch": 6196,
      "yoga": 6197,
      "vet": 6198,
      "venge": 6199,
      "sake": 6200,
      "resist": 6201,
      "mainstream": 6202,
      "advant": 6203,
      "significant": 6204,
      "London": 6205,
      "Age": 6206,
      "Pen": 6207,
      "Ted": 6208,
      "ech": 6209,
      "tank": 6210,
      "attitude": 6211,
      "tack": 6212,
      "supp": 6213,
      "Joy": 6214,
      "skim": 6215,
      "exceptional": 6216,
      "PRODU": 6217,
      "tragedy": 6218,
      "contemporary": 6219,
      "virtually": 6220,
      "fying": 6221,
      "mi": 6222,
      "rr": 6223,
      "enna": 6224,
      "youth": 6225,
      "intent": 6226,
      "compli": 6227,
      "humans": 6228,
      "garage": 6229,
      "Island": 6230,
      "installment": 6231,
      "AWESOME": 6232,
      "drums": 6233,
      "Hugh": 6234,
      "contribut": 6235,
      "detective": 6236,
      "frankly": 6237,
      "Fan": 6238,
      "Kong": 6239,
      "bomb": 6240,
      "unnecessary": 6241,
      "ilton": 6242,
      "endless": 6243,
      "!!!!!": 6244,
      "\"\"}": 6245,
      "Ca": 6246,
      "DC": 6247,
      "excess": 6248,
      "wrap": 6249,
      "Web": 6250,
      "handles": 6251,
      "2001": 6252,
      "promot": 6253,
      "forgettable": 6254,
      "captured": 6255,
      "Greg": 6256,
      "fied": 6257,
      "rick": 6258,
      "sink": 6259,
      "humanity": 6260,
      "busy": 6261,
      "snap": 6262,
      "functional": 6263,
      "protagonist": 6264,
      "Five": 6265,
      "Ram": 6266,
      "map": 6267,
      "national": 6268,
      "sources": 6269,
      "laid": 6270,
      "tip": 6271,
      "Stick": 6272,
      "marvel": 6273,
      "rence": 6274,
      "Anita": 6275,
      "ballads": 6276,
      "risk": 6277,
      "1984": 6278,
      "technique": 6279,
      "PLEASE": 6280,
      "christmas": 6281,
      "Hi": 6282,
      "uninteresting": 6283,
      "tag": 6284,
      "Inst": 6285,
      "Reg": 6286,
      "dying": 6287,
      "inches": 6288,
      "emphas": 6289,
      "Louis": 6290,
      "suddenly": 6291,
      "Such": 6292,
      "ena": 6293,
      "ario": 6294,
      "estab": 6295,
      "versary": 6296,
      "string": 6297,
      "fficient": 6298,
      "benefit": 6299,
      "cinematography": 6300,
      "Brilli": 6301,
      "Care": 6302,
      "Guy": 6303,
      "conv": 6304,
      "blind": 6305,
      "guaran": 6306,
      "==": 6307,
      "Gil": 6308,
      "Mem": 6309,
      "lig": 6310,
      "notch": 6311,
      "bless": 6312,
      "ATION": 6313,
      "minded": 6314,
      "scholar": 6315,
      "ABLE": 6316,
      "Diana": 6317,
      "Oli": 6318,
      "ema": 6319,
      "inder": 6320,
      "gotta": 6321,
      "boyfriend": 6322,
      "cups": 6323,
      "vacation": 6324,
      "puzzle": 6325,
      "GB": 6326,
      "infer": 6327,
      "aces": 6328,
      "minds": 6329,
      "computers": 6330,
      "Jimmy": 6331,
      "phrases": 6332,
      "Cd": 6333,
      "Cas": 6334,
      "eth": 6335,
      "zes": 6336,
      "stink": 6337,
      "meas": 6338,
      "Comp": 6339,
      "Spir": 6340,
      "practically": 6341,
      "guns": 6342,
      "investment": 6343,
      "disgusting": 6344,
      "Bottom": 6345,
      "California": 6346,
      "batt": 6347,
      "wilight": 6348,
      "whenever": 6349,
      "cious": 6350,
      "brown": 6351,
      "Remember": 6352,
      "lists": 6353,
      "Quite": 6354,
      "supposedly": 6355,
      "narrator": 6356,
      "focused": 6357,
      "adequate": 6358,
      "OFF": 6359,
      "weekend": 6360,
      "DS": 6361,
      "EE": 6362,
      "Rush": 6363,
      "bug": 6364,
      "gie": 6365,
      "ida": 6366,
      "glue": 6367,
      "Grant": 6368,
      "hundreds": 6369,
      "tragic": 6370,
      "determin": 6371,
      "target": 6372,
      "celebr": 6373,
      "LU": 6374,
      "OVER": 6375,
      "Rep": 6376,
      "bury": 6377,
      "blew": 6378,
      "award": 6379,
      "causes": 6380,
      "companies": 6381,
      "mysterious": 6382,
      "Dor": 6383,
      "HIS": 6384,
      "onest": 6385,
      "authentic": 6386,
      "entertained": 6387,
      "flex": 6388,
      "Panasonic": 6389,
      "credible": 6390,
      "Personally": 6391,
      "abridged": 6392,
      "icy": 6393,
      "consc": 6394,
      "ideal": 6395,
      "crets": 6396,
      "pretentious": 6397,
      "melodic": 6398,
      "Pearl": 6399,
      "Women": 6400,
      "itate": 6401,
      "pson": 6402,
      "stops": 6403,
      "teenage": 6404,
      "IGH": 6405,
      "american": 6406,
      "garden": 6407,
      "Radio": 6408,
      "Conf": 6409,
      "LOVED": 6410,
      "cracked": 6411,
      "Rick": 6412,
      "TC": 6413,
      "lections": 6414,
      "drives": 6415,
      "treated": 6416,
      "Metal": 6417,
      "WWII": 6418,
      "Cry": 6419,
      "Dance": 6420,
      "Taylor": 6421,
      "cow": 6422,
      "thur": 6423,
      "aded": 6424,
      "rob": 6425,
      "polic": 6426,
      "curity": 6427,
      "Mrs": 6428,
      "Couldn": 6429,
      "Kids": 6430,
      "Pass": 6431,
      "Neil": 6432,
      "WASTE": 6433,
      "Custom": 6434,
      "NT": 6435,
      "nur": 6436,
      "ichol": 6437,
      "ATCH": 6438,
      "descriptive": 6439,
      "Stein": 6440,
      "SD": 6441,
      "gear": 6442,
      "olds": 6443,
      "Dog": 6444,
      "Someone": 6445,
      "fictional": 6446,
      "installation": 6447,
      "offering": 6448,
      "Ella": 6449,
      "THERE": 6450,
      "Favorite": 6451,
      "CI": 6452,
      "stro": 6453,
      "sees": 6454,
      "expand": 6455,
      "cheaply": 6456,
      "controls": 6457,
      "programming": 6458,
      "education": 6459,
      "appealing": 6460,
      "specifically": 6461,
      "Sin": 6462,
      "file": 6463,
      "urig": 6464,
      "ende": 6465,
      "timer": 6466,
      "spare": 6467,
      "corn": 6468,
      "lasts": 6469,
      "covering": 6470,
      "drivel": 6471,
      "Fox": 6472,
      "phenomen": 6473,
      "keys": 6474,
      "abilities": 6475,
      "peel": 6476,
      "picks": 6477,
      "editions": 6478,
      "arrive": 6479,
      "textbook": 6480,
      "zzy": 6481,
      "grandson": 6482,
      "Manson": 6483,
      "Pack": 6484,
      "Rome": 6485,
      "Tony": 6486,
      "istics": 6487,
      "grass": 6488,
      "plate": 6489,
      "ruin": 6490,
      "buff": 6491,
      "ternal": 6492,
      "loyd": 6493,
      "400": 6494,
      "Cer": 6495,
      "Phi": 6496,
      "Say": 6497,
      "bars": 6498,
      "egg": 6499,
      "hide": 6500,
      "tro": 6501,
      "vast": 6502,
      "resc": 6503,
      "atically": 6504,
      "shine": 6505,
      "decade": 6506,
      "visible": 6507,
      "Box": 6508,
      "Totally": 6509,
      "stomach": 6510,
      "Open": 6511,
      "nation": 6512,
      "beck": 6513,
      "cean": 6514,
      "pictured": 6515,
      "receiving": 6516,
      "blame": 6517,
      "Looking": 6518,
      "Bear": 6519,
      "Wat": 6520,
      "atly": 6521,
      "spark": 6522,
      "OUR": 6523,
      "opinions": 6524,
      "fourth": 6525,
      "mp3": 6526,
      "Boo": 6527,
      "BACK": 6528,
      "Gone": 6529,
      "NING": 6530,
      "OP": 6531,
      "gut": 6532,
      "ctic": 6533,
      "bye": 6534,
      "grat": 6535,
      "scape": 6536,
      "ued": 6537,
      "isnt": 6538,
      "encour": 6539,
      "tians": 6540,
      "compact": 6541,
      "handed": 6542,
      "basics": 6543,
      "ICK": 6544,
      "ROCK": 6545,
      "storage": 6546,
      "64": 6547,
      "reck": 6548,
      "bell": 6549,
      "acqu": 6550,
      "enjoyment": 6551,
      "Belie": 6552,
      "Point": 6553,
      "checking": 6554,
      "legal": 6555,
      "bargain": 6556,
      "III": 6557,
      "contrived": 6558,
      "Total": 6559,
      "Brothers": 6560,
      "Dry": 6561,
      "Kr": 6562,
      "pha": 6563,
      "evening": 6564,
      "turner": 6565,
      "Head": 6566,
      "Ann": 6567,
      "trailer": 6568,
      "freedom": 6569,
      "Godzilla": 6570,
      "WHEN": 6571,
      "accomplish": 6572,
      "Bay": 6573,
      "Cur": 6574,
      "Def": 6575,
      "Eric": 6576,
      "...)": 6577,
      "watchable": 6578,
      "chosen": 6579,
      "speaks": 6580,
      "cookbook": 6581,
      "bothered": 6582,
      "instruments": 6583,
      "Lear": 6584,
      "Woman": 6585,
      "tax": 6586,
      "preach": 6587,
      "Start": 6588,
      "niversary": 6589,
      "Charact": 6590,
      "FIR": 6591,
      "Mot": 6592,
      "TA": 6593,
      "dates": 6594,
      "gel": 6595,
      "wrapped": 6596,
      "ADE": 6597,
      "European": 6598,
      "Honest": 6599,
      "SON": 6600,
      "unknown": 6601,
      "Heaven": 6602,
      "highlight": 6603,
      "leted": 6604,
      "collector": 6605,
      "decades": 6606,
      "2003": 6607,
      "Enough": 6608,
      "biased": 6609,
      "gradu": 6610,
      "gripping": 6611,
      "innov": 6612,
      "Nichol": 6613,
      "VO": 6614,
      "inge": 6615,
      "cliche": 6616,
      "lotte": 6617,
      "Beach": 6618,
      "clock": 6619,
      "WHY": 6620,
      "teenagers": 6621,
      "competit": 6622,
      "ennifer": 6623,
      "stap": 6624,
      "stable": 6625,
      "weap": 6626,
      "ulary": 6627,
      "miser": 6628,
      "roots": 6629,
      "Obviously": 6630,
      "ML": 6631,
      "Mine": 6632,
      "PRE": 6633,
      "candy": 6634,
      "goodness": 6635,
      "scale": 6636,
      "stem": 6637,
      "negut": 6638,
      "projects": 6639,
      "Garbage": 6640,
      "subscription": 6641,
      "Summer": 6642,
      "Java": 6643,
      "WON": 6644,
      "eves": 6645,
      "nud": 6646,
      "ulate": 6647,
      "according": 6648,
      "Chan": 6649,
      "Ford": 6650,
      "friendship": 6651,
      "generic": 6652,
      "throwing": 6653,
      "wedding": 6654,
      "EXCE": 6655,
      "horribly": 6656,
      "BETTER": 6657,
      "\"?": 6658,
      "Hat": 6659,
      "__": 6660,
      "uary": 6661,
      "ference": 6662,
      "strap": 6663,
      "uggling": 6664,
      "Prince": 6665,
      "shopping": 6666,
      "loyal": 6667,
      "Hitch": 6668,
      "Pow": 6669,
      "Pink": 6670,
      "supply": 6671,
      "topher": 6672,
      "severe": 6673,
      "boxes": 6674,
      "60s": 6675,
      "Original": 6676,
      "23": 6677,
      "Clear": 6678,
      "Hit": 6679,
      "Nick": 6680,
      "oven": 6681,
      "arian": 6682,
      "auce": 6683,
      "hash": 6684,
      "Roy": 6685,
      "casual": 6686,
      "universe": 6687,
      "Idol": 6688,
      "Less": 6689,
      "sung": 6690,
      "una": 6691,
      "passages": 6692,
      "Disappointment": 6693,
      "combined": 6694,
      "location": 6695,
      "Version": 6696,
      "Vonnegut": 6697,
      "800": 6698,
      "Shi": 6699,
      "inj": 6700,
      "daughters": 6701,
      "crying": 6702,
      "wisdom": 6703,
      "Mother": 6704,
      "Sn": 6705,
      "bull": 6706,
      "concise": 6707,
      "acou": 6708,
      "producer": 6709,
      "strain": 6710,
      "drivers": 6711,
      "programs": 6712,
      "Color": 6713,
      "claimed": 6714,
      "sharpen": 6715,
      "fingers": 6716,
      "surprisingly": 6717,
      "HORRIBLE": 6718,
      "Tur": 6719,
      "nav": 6720,
      "hassle": 6721,
      "split": 6722,
      "sheer": 6723,
      "wake": 6724,
      "Sea": 6725,
      "nights": 6726,
      "Blues": 6727,
      "Clark": 6728,
      "machines": 6729,
      "pleasantly": 6730,
      "Civ": 6731,
      "DAY": 6732,
      "mos": 6733,
      "Things": 6734,
      "listing": 6735,
      "addict": 6736,
      "kidding": 6737,
      "LOW": 6738,
      "atherine": 6739,
      "explaining": 6740,
      "Service": 6741,
      "burning": 6742,
      "Irish": 6743,
      "Joseph": 6744,
      "Snow": 6745,
      "WARE": 6746,
      "ore": 6747,
      "sta": 6748,
      "heaven": 6749,
      "unexpected": 6750,
      "dislike": 6751,
      "suff": 6752,
      "factor": 6753,
      "vised": 6754,
      "woods": 6755,
      "kills": 6756,
      "cables": 6757,
      "leaks": 6758,
      "Director": 6759,
      "adaptation": 6760,
      "Rainbow": 6761,
      "reputation": 6762,
      ".)\"}": 6763,
      "BT": 6764,
      "DR": 6765,
      "Jason": 6766,
      "PA": 6767,
      "River": 6768,
      "maps": 6769,
      "pity": 6770,
      "upper": 6771,
      "shell": 6772,
      "hearted": 6773,
      "Buyer": 6774,
      "Collection": 6775,
      "theatre": 6776,
      "ignore": 6777,
      "Brilliant": 6778,
      "Goo": 6779,
      "Jennifer": 6780,
      "gue": 6781,
      "thumbs": 6782,
      "nold": 6783,
      "fet": 6784,
      "accent": 6785,
      "compass": 6786,
      "instance": 6787,
      "ounce": 6788,
      "bags": 6789,
      "rushed": 6790,
      "Mas": 6791,
      "Rand": 6792,
      "mart": 6793,
      "icide": 6794,
      "assist": 6795,
      "backpack": 6796,
      "desired": 6797,
      "ignor": 6798,
      "lacked": 6799,
      "Jackie": 6800,
      "narrow": 6801,
      "twisted": 6802,
      "fooled": 6803,
      "sizes": 6804,
      "anch": 6805,
      "reed": 6806,
      "rolling": 6807,
      "listener": 6808,
      "returns": 6809,
      "informed": 6810,
      "McC": 6811,
      "Dun": 6812,
      "MG": 6813,
      "hous": 6814,
      "indul": 6815,
      "sheets": 6816,
      "ITS": 6817,
      "Keurig": 6818,
      "Juli": 6819,
      "suitable": 6820,
      "instrumental": 6821,
      "Surpr": 6822,
      "interpretation": 6823,
      "destroyed": 6824,
      "Purchased": 6825,
      "Ant": 6826,
      "BI": 6827,
      "Ill": 6828,
      "lent": 6829,
      "miles": 6830,
      "stiff": 6831,
      "idges": 6832,
      "umber": 6833,
      "hosp": 6834,
      "cartr": 6835,
      "laughable": 6836,
      "menu": 6837,
      "Christopher": 6838,
      "thology": 6839,
      "poems": 6840,
      "Bond": 6841,
      "Want": 6842,
      "dinner": 6843,
      "independ": 6844,
      "forces": 6845,
      "guitars": 6846,
      "Ash": 6847,
      "Ton": 6848,
      "Used": 6849,
      "kne": 6850,
      "replacing": 6851,
      "butter": 6852,
      "hob": 6853,
      "vili": 6854,
      "directing": 6855,
      "costumes": 6856,
      "harsh": 6857,
      "magnificent": 6858,
      "Card": 6859,
      "GG": 6860,
      "escap": 6861,
      "trite": 6862,
      "ometer": 6863,
      "frag": 6864,
      "studying": 6865,
      "Club": 6866,
      "wooden": 6867,
      "identify": 6868,
      "Days": 6869,
      "petta": 6870,
      "downloaded": 6871,
      "GU": 6872,
      "pion": 6873,
      "pile": 6874,
      "itiz": 6875,
      "ooper": 6876,
      "shall": 6877,
      "aud": 6878,
      "herent": 6879,
      "bitter": 6880,
      "ALLY": 6881,
      "Worked": 6882,
      "casting": 6883,
      "lyrical": 6884,
      "Seems": 6885,
      "skipped": 6886,
      "Junk": 6887,
      "Pure": 6888,
      "Rac": 6889,
      "Shad": 6890,
      "bank": 6891,
      "cles": 6892,
      "dirt": 6893,
      "eer": 6894,
      "mono": 6895,
      "Forget": 6896,
      "definite": 6897,
      "Dragon": 6898,
      "loses": 6899,
      "positions": 6900,
      "drinking": 6901,
      "conversation": 6902,
      "Lady": 6903,
      "Vamp": 6904,
      "mate": 6905,
      "nasty": 6906,
      "noon": 6907,
      "bookstore": 6908,
      "ums": 6909,
      "ishing": 6910,
      "sheet": 6911,
      "Cho": 6912,
      "teachers": 6913,
      "Girls": 6914,
      "crafted": 6915,
      "advantage": 6916,
      "Believe": 6917,
      "KNOW": 6918,
      "vul": 6919,
      "stum": 6920,
      "strip": 6921,
      "pointed": 6922,
      "singles": 6923,
      "Deep": 6924,
      "Steven": 6925,
      "subjects": 6926,
      "relaxing": 6927,
      "AU": 6928,
      "Cu": 6929,
      "FIL": 6930,
      "jacket": 6931,
      "rison": 6932,
      "therap": 6933,
      "prices": 6934,
      "offensive": 6935,
      "reviewed": 6936,
      "giant": 6937,
      "warn": 6938,
      "2002": 6939,
      "occasional": 6940,
      "responsible": 6941,
      "dishwasher": 6942,
      "riffs": 6943,
      "conscious": 6944,
      "incorrect": 6945,
      "asia": 6946,
      "oph": 6947,
      "artistic": 6948,
      "civili": 6949,
      "Chic": 6950,
      "tribute": 6951,
      "pathy": 6952,
      "ORY": 6953,
      "Peace": 6954,
      "cardboard": 6955,
      "messages": 6956,
      "suffering": 6957,
      "featuring": 6958,
      "FIRST": 6959,
      "Cold": 6960,
      "cil": 6961,
      "yo": 6962,
      "revenge": 6963,
      "backs": 6964,
      "lifetime": 6965,
      "lasting": 6966,
      "Dece": 6967,
      "iah": 6968,
      "seemingly": 6969,
      "cultural": 6970,
      "flip": 6971,
      "rigue": 6972,
      "mysteries": 6973,
      "arently": 6974,
      "powers": 6975,
      "Russell": 6976,
      "EST": 6977,
      "SER": 6978,
      "Stop": 6979,
      "Sky": 6980,
      "glim": 6981,
      "plo": 6982,
      "yesterday": 6983,
      "rep": 6984,
      "edges": 6985,
      "filters": 6986,
      "States": 6987,
      "Anim": 6988,
      "1000": 6989,
      "smells": 6990,
      "convinced": 6991,
      "bizarre": 6992,
      "cassette": 6993,
      "Dad": 6994,
      "Imag": 6995,
      "yy": 6996,
      "wasnt": 6997,
      "ids": 6998,
      "abr": 6999,
      "unfortunate": 7000,
      "fundam": 7001,
      "insane": 7002,
      "!!!!!\"}": 7003,
      "suggestions": 7004,
      "affair": 7005,
      "equal": 7006,
      "AGAIN": 7007,
      "Needless": 7008,
      "Wel": 7009,
      "glow": 7010,
      "vague": 7011,
      "serving": 7012,
      "interview": 7013,
      "ISS": 7014,
      "marily": 7015,
      "screaming": 7016,
      "drill": 7017,
      "ification": 7018,
      "dissappoint": 7019,
      "assemble": 7020,
      "category": 7021,
      "methods": 7022,
      "150": 7023,
      "Eag": 7024,
      "bare": 7025,
      "matt": 7026,
      "mond": 7027,
      "ashed": 7028,
      "trend": 7029,
      "flies": 7030,
      "promptly": 7031,
      "Profess": 7032,
      "Diam": 7033,
      "EVEN": 7034,
      "ture": 7035,
      "alright": 7036,
      "conver": 7037,
      "seg": 7038,
      "angel": 7039,
      "Bowie": 7040,
      "Frid": 7041,
      "MIN": 7042,
      "zard": 7043,
      "users": 7044,
      "deleted": 7045,
      "ifying": 7046,
      "2005": 7047,
      "Stewart": 7048,
      "summary": 7049,
      "captivating": 7050,
      "Wolf": 7051,
      "fare": 7052,
      "andon": 7053,
      "asis": 7054,
      "exchange": 7055,
      "STILL": 7056,
      "trail": 7057,
      "driven": 7058,
      "ACE": 7059,
      "Charlotte": 7060,
      "publication": 7061,
      "nuts": 7062,
      "Scarpetta": 7063,
      "HUGE": 7064,
      "Ice": 7065,
      "Wall": 7066,
      "reward": 7067,
      "hack": 7068,
      "proved": 7069,
      "plaus": 7070,
      "Howard": 7071,
      "Trust": 7072,
      "figures": 7073,
      "devices": 7074,
      "26": 7075,
      "Mix": 7076,
      "oration": 7077,
      "atory": 7078,
      "talents": 7079,
      "matters": 7080,
      "credits": 7081,
      "necessarily": 7082,
      "Wayne": 7083,
      "vocab": 7084,
      "tube": 7085,
      "Cop": 7086,
      "unhappy": 7087,
      "transform": 7088,
      "advance": 7089,
      "Morrison": 7090,
      "Captain": 7091,
      "Wait": 7092,
      "36": 7093,
      "gal": 7094,
      "lace": 7095,
      "usive": 7096,
      "demand": 7097,
      "shorter": 7098,
      "agger": 7099,
      "rape": 7100,
      "ISH": 7101,
      "creation": 7102,
      "amazingly": 7103,
      "glor": 7104,
      "guessing": 7105,
      "extraordinary": 7106,
      "cinema": 7107,
      "\").": 7108,
      "Carr": 7109,
      "hr": 7110,
      "task": 7111,
      "moon": 7112,
      "ighest": 7113,
      "Josh": 7114,
      "flawed": 7115,
      "bathr": 7116,
      "dragged": 7117,
      "circumst": 7118,
      "duty": 7119,
      "anu": 7120,
      "command": 7121,
      "originality": 7122,
      "stume": 7123,
      "tested": 7124,
      "scratched": 7125,
      "struggles": 7126,
      "article": 7127,
      "Jour": 7128,
      "TT": 7129,
      "Twilight": 7130,
      "bugs": 7131,
      "serial": 7132,
      "instant": 7133,
      "filling": 7134,
      "occasionally": 7135,
      "application": 7136,
      "Elect": 7137,
      "Years": 7138,
      "latter": 7139,
      "yer": 7140,
      "lik": 7141,
      "cried": 7142,
      "Roll": 7143,
      "Word": 7144,
      "freak": 7145,
      "narration": 7146,
      "Lucy": 7147,
      "reread": 7148,
      "constructed": 7149,
      "5th": 7150,
      "Batter": 7151,
      "IP": 7152,
      "Ten": 7153,
      "incess": 7154,
      "uted": 7155,
      "alling": 7156,
      "Ai": 7157,
      "Pac": 7158,
      "Viet": 7159,
      "emer": 7160,
      "abuse": 7161,
      "chem": 7162,
      "portable": 7163,
      "dragon": 7164,
      "1999": 7165,
      "surprises": 7166,
      "Warner": 7167,
      "winning": 7168,
      "hooks": 7169,
      "victim": 7170,
      "27": 7171,
      "Greek": 7172,
      "Sav": 7173,
      "mold": 7174,
      "intention": 7175,
      "izer": 7176,
      "corder": 7177,
      "letting": 7178,
      "Arthur": 7179,
      "grees": 7180,
      "frustration": 7181,
      "melody": 7182,
      "milk": 7183,
      "Bush": 7184,
      "Middle": 7185,
      "upbeat": 7186,
      "Always": 7187,
      "THEM": 7188,
      "index": 7189,
      "qualities": 7190,
      "Freddy": 7191,
      "Publ": 7192,
      "Cel": 7193,
      "ros": 7194,
      "elf": 7195,
      "brow": 7196,
      "strings": 7197,
      ".......": 7198,
      "LESS": 7199,
      "Leon": 7200,
      "PLAY": 7201,
      "Faith": 7202,
      "pregnant": 7203,
      "battles": 7204,
      "Dur": 7205,
      "FA": 7206,
      "MTV": 7207,
      "fond": 7208,
      "gam": 7209,
      "tops": 7210,
      "earned": 7211,
      "tooth": 7212,
      "icked": 7213,
      "lightweight": 7214,
      "cript": 7215,
      "drain": 7216,
      "posite": 7217,
      "Living": 7218,
      "passing": 7219,
      "stronger": 7220,
      "limit": 7221,
      "diet": 7222,
      "skipping": 7223,
      "www": 7224,
      "borrowed": 7225,
      "FORE": 7226,
      "distracting": 7227,
      "Either": 7228,
      "cous": 7229,
      "thier": 7230,
      "atro": 7231,
      "REE": 7232,
      "Stud": 7233,
      "humour": 7234,
      "United": 7235,
      "starring": 7236,
      "screenplay": 7237,
      "imagery": 7238,
      "carrying": 7239,
      "samples": 7240,
      "Times": 7241,
      "incere": 7242,
      "SHOULD": 7243,
      "Psy": 7244,
      "WANT": 7245,
      "skept": 7246,
      "manip": 7247,
      "sequels": 7248,
      "jointed": 7249,
      "Apparently": 7250,
      "nudity": 7251,
      "ckets": 7252,
      "uct": 7253,
      "toler": 7254,
      "arti": 7255,
      "Item": 7256,
      "uplifting": 7257,
      "THINK": 7258,
      "uddy": 7259,
      "Expect": 7260,
      "ESS": 7261,
      "importance": 7262,
      "heroes": 7263,
      "meaningful": 7264,
      "Customer": 7265,
      "MENT": 7266,
      "Sex": 7267,
      "binding": 7268,
      "essentially": 7269,
      "thoughtful": 7270,
      "mingway": 7271,
      "Jewish": 7272,
      "witness": 7273,
      "Dickens": 7274,
      "zombie": 7275,
      "policy": 7276,
      "Chicago": 7277,
      "Further": 7278,
      "Kiss": 7279,
      "reaction": 7280,
      "liqu": 7281,
      "lighter": 7282,
      "urs": 7283,
      "strict": 7284,
      "trim": 7285,
      "Bron": 7286,
      "mixing": 7287,
      "studies": 7288,
      "rental": 7289,
      "Sounds": 7290,
      "sophist": 7291,
      "Witch": 7292,
      "gle": 7293,
      "gger": 7294,
      "ona": 7295,
      "resem": 7296,
      "revolution": 7297,
      "tober": 7298,
      "functions": 7299,
      "anged": 7300,
      "survi": 7301,
      "***": 7302,
      "suspenseful": 7303,
      "Elvis": 7304,
      "Matrix": 7305,
      "quotes": 7306,
      "Machine": 7307,
      "Father": 7308,
      "Side": 7309,
      "bat": 7310,
      "lored": 7311,
      "usions": 7312,
      "upgrad": 7313,
      "prepar": 7314,
      "corner": 7315,
      "orses": 7316,
      "BEWARE": 7317,
      "Atl": 7318,
      "promising": 7319,
      "baseball": 7320,
      "stainless": 7321,
      "crowd": 7322,
      "Extremely": 7323,
      "acoustic": 7324,
      "Ay": 7325,
      "Aid": 7326,
      "Cute": 7327,
      "Ron": 7328,
      "Sleep": 7329,
      "recall": 7330,
      "ulated": 7331,
      "raised": 7332,
      "farm": 7333,
      "holder": 7334,
      "balanced": 7335,
      "Written": 7336,
      "silver": 7337,
      "AMAZING": 7338,
      "Depp": 7339,
      "Spirit": 7340,
      "tong": 7341,
      "urally": 7342,
      "acity": 7343,
      "trait": 7344,
      "???\",": 7345,
      "2004": 7346,
      "POINT": 7347,
      "companion": 7348,
      "simplistic": 7349,
      "Davis": 7350,
      "gloss": 7351,
      "brick": 7352,
      "obsc": 7353,
      "cooker": 7354,
      "DONT": 7355,
      "Wilson": 7356,
      "minimal": 7357,
      "patterns": 7358,
      "clarity": 7359,
      "Photo": 7360,
      "Burn": 7361,
      "Lan": 7362,
      "Usu": 7363,
      "Ze": 7364,
      "liking": 7365,
      "perfection": 7366,
      "rights": 7367,
      "Moby": 7368,
      "washing": 7369,
      "Advent": 7370,
      "roads": 7371,
      "Trek": 7372,
      "Steinbeck": 7373,
      "GHT": 7374,
      "caut": 7375,
      "intr": 7376,
      "spends": 7377,
      "serves": 7378,
      "blows": 7379,
      "reception": 7380,
      "instantly": 7381,
      "riding": 7382,
      "walked": 7383,
      "explore": 7384,
      "beliefs": 7385,
      "management": 7386,
      "rhythm": 7387,
      "dreadful": 7388,
      "Bir": 7389,
      "awe": 7390,
      "cis": 7391,
      "orient": 7392,
      "degrees": 7393,
      "div": 7394,
      "ilet": 7395,
      "plant": 7396,
      "monot": 7397,
      "glas": 7398,
      "trees": 7399,
      "SUCK": 7400,
      "Patrick": 7401,
      "inferior": 7402,
      "Bull": 7403,
      "Case": 7404,
      "blocks": 7405,
      "tub": 7406,
      "tends": 7407,
      "finan": 7408,
      "inson": 7409,
      "speech": 7410,
      "extensive": 7411,
      "195": 7412,
      "Honestly": 7413,
      "Fine": 7414,
      "Fair": 7415,
      "Saw": 7416,
      "SHE": 7417,
      "phy": 7418,
      "medic": 7419,
      "fallen": 7420,
      "Horror": 7421,
      "VIEW": 7422,
      "cruel": 7423,
      "Roman": 7424,
      "Burton": 7425,
      "corporate": 7426,
      "Pi": 7427,
      "Sty": 7428,
      "jar": 7429,
      "tles": 7430,
      "lips": 7431,
      "prints": 7432,
      "Africa": 7433,
      "Talk": 7434,
      "Based": 7435,
      "Rent": 7436,
      "lazy": 7437,
      "femin": 7438,
      "explic": 7439,
      "cot": 7440,
      "duction": 7441,
      "corny": 7442,
      "compon": 7443,
      "2006": 7444,
      "distance": 7445,
      "boots": 7446,
      "routine": 7447,
      "torture": 7448,
      "vehicle": 7449,
      "bathroom": 7450,
      "apple": 7451,
      "poign": 7452,
      "afternoon": 7453,
      "allowing": 7454,
      "answered": 7455,
      "pushed": 7456,
      "initial": 7457,
      "mechanism": 7458,
      "CRE": 7459,
      "Gene": 7460,
      "Hall": 7461,
      "Jess": 7462,
      "Kate": 7463,
      "Rose": 7464,
      "aint": 7465,
      "nest": 7466,
      "foreign": 7467,
      "ARS": 7468,
      "Patric": 7469,
      "scratches": 7470,
      "shadow": 7471,
      "Gal": 7472,
      "Land": 7473,
      "Pur": 7474,
      "Rather": 7475,
      "athe": 7476,
      "aur": 7477,
      "fitting": 7478,
      "rum": 7479,
      "lest": 7480,
      "entry": 7481,
      "grate": 7482,
      "everytime": 7483,
      "mons": 7484,
      "spel": 7485,
      "Stu": 7486,
      "closely": 7487,
      "attempted": 7488,
      "Internet": 7489,
      "Hamilton": 7490,
      "scope": 7491,
      "hospital": 7492,
      "vocabulary": 7493,
      "Gor": 7494,
      "pir": 7495,
      "patch": 7496,
      "saga": 7497,
      "demo": 7498,
      "INE": 7499,
      "Alan": 7500,
      "touches": 7501,
      "Keanu": 7502,
      "sweat": 7503,
      "Follow": 7504,
      "theaters": 7505,
      "Office": 7506,
      "photographs": 7507,
      "Diamond": 7508,
      "Friday": 7509,
      "DJ": 7510,
      "Latin": 7511,
      "tones": 7512,
      "security": 7513,
      "wires": 7514,
      "onely": 7515,
      "volumes": 7516,
      "nail": 7517,
      "Christianity": 7518,
      "regardless": 7519,
      "accessible": 7520,
      "Chap": 7521,
      "smoke": 7522,
      "Science": 7523,
      "PRODUCT": 7524,
      "Seven": 7525,
      "ec": 7526,
      "inn": 7527,
      "seam": 7528,
      "habit": 7529,
      "lol": 7530,
      "aws": 7531,
      "differences": 7532,
      "possess": 7533,
      "involving": 7534,
      "Magic": 7535,
      "sisters": 7536,
      "dough": 7537,
      "ko": 7538,
      "vies": 7539,
      "lab": 7540,
      "bridge": 7541,
      "struggling": 7542,
      "crush": 7543,
      "logic": 7544,
      "decides": 7545,
      "Indian": 7546,
      "initially": 7547,
      "crisp": 7548,
      "Pet": 7549,
      "zip": 7550,
      "shines": 7551,
      "Stan": 7552,
      "valid": 7553,
      "featured": 7554,
      "importantly": 7555,
      "distinct": 7556,
      "wheels": 7557,
      "Angels": 7558,
      "yrs": 7559,
      "Help": 7560,
      "Gary": 7561,
      "NA": 7562,
      "highest": 7563,
      "pig": 7564,
      "delicious": 7565,
      "Outstanding": 7566,
      "analy": 7567,
      "vampires": 7568,
      "AMAZON": 7569,
      "Douglas": 7570,
      "athing": 7571,
      "pens": 7572,
      "eness": 7573,
      "dear": 7574,
      "shed": 7575,
      "hardcover": 7576,
      "Solid": 7577,
      "observ": 7578,
      "wished": 7579,
      "lton": 7580,
      "semi": 7581,
      "theatrical": 7582,
      "individuals": 7583,
      "toddler": 7584,
      "Hate": 7585,
      "Sep": 7586,
      "Tem": 7587,
      "convent": 7588,
      "llo": 7589,
      "decor": 7590,
      "ourselves": 7591,
      "rule": 7592,
      "Barry": 7593,
      "Superman": 7594,
      "Danny": 7595,
      "safety": 7596,
      "?!?!": 7597,
      "Piece": 7598,
      "Aug": 7599,
      "Cri": 7600,
      "Ni": 7601,
      "Vir": 7602,
      "opens": 7603,
      "reasonably": 7604,
      "difficulty": 7605,
      "Poorly": 7606,
      "pads": 7607,
      "Fat": 7608,
      "Row": 7609,
      "park": 7610,
      "tact": 7611,
      "eras": 7612,
      "itute": 7613,
      "argu": 7614,
      "marked": 7615,
      "primary": 7616,
      "COME": 7617,
      "COMM": 7618,
      "ratings": 7619,
      "thousands": 7620,
      "Patter": 7621,
      "zel": 7622,
      "ching": 7623,
      "umph": 7624,
      "Novel": 7625,
      "cleaner": 7626,
      "Hero": 7627,
      "MOST": 7628,
      "posted": 7629,
      "phrase": 7630,
      "shocking": 7631,
      "patience": 7632,
      "Miller": 7633,
      "Buck": 7634,
      "HIGH": 7635,
      "Might": 7636,
      "Naz": 7637,
      "Spr": 7638,
      "hall": 7639,
      "sits": 7640,
      "zation": 7641,
      "realism": 7642,
      "scenario": 7643,
      "Within": 7644,
      "layer": 7645,
      "cooler": 7646,
      "UNK": 7647,
      "fights": 7648,
      "pulling": 7649,
      "rubbish": 7650,
      "Dylan": 7651,
      "tremendous": 7652,
      "October": 7653,
      "Aiken": 7654,
      "Clo": 7655,
      "DY": 7656,
      "Dol": 7657,
      "ego": 7658,
      "nephe": 7659,
      "cans": 7660,
      "costume": 7661,
      "Justin": 7662,
      "Train": 7663,
      "France": 7664,
      "Eddie": 7665,
      "90s": 7666,
      "Germany": 7667,
      "soothing": 7668,
      "Dest": 7669,
      "Es": 7670,
      "Rice": 7671,
      "fame": 7672,
      "noisy": 7673,
      "berry": 7674,
      "stored": 7675,
      "tempo": 7676,
      "tests": 7677,
      "thrilling": 7678,
      "Cle": 7679,
      "Ghost": 7680,
      "evol": 7681,
      "shred": 7682,
      "artwork": 7683,
      "pron": 7684,
      "court": 7685,
      "config": 7686,
      "publishing": 7687,
      "conveni": 7688,
      "Ultimate": 7689,
      "Country": 7690,
      "elimin": 7691,
      "Slow": 7692,
      "lbs": 7693,
      "veget": 7694,
      "illian": 7695,
      "grows": 7696,
      "blank": 7697,
      "capital": 7698,
      "accuracy": 7699,
      "aliens": 7700,
      "millions": 7701,
      "status": 7702,
      "FAN": 7703,
      "Press": 7704,
      "nose": 7705,
      "disjointed": 7706,
      "sugar": 7707,
      "viewers": 7708,
      "CHE": 7709,
      "Beauty": 7710,
      "square": 7711,
      "survival": 7712,
      "29": 7713,
      "Fiction": 7714,
      "Sol": 7715,
      "iers": 7716,
      "encing": 7717,
      "termin": 7718,
      "unfold": 7719,
      "irk": 7720,
      "sche": 7721,
      "happier": 7722,
      "cloth": 7723,
      "distri": 7724,
      "focuses": 7725,
      "Southern": 7726,
      "insert": 7727,
      "GPS": 7728,
      "Hal": 7729,
      "Sever": 7730,
      "Year": 7731,
      "eleg": 7732,
      "flight": 7733,
      "urday": 7734,
      "quote": 7735,
      "songwriting": 7736,
      "supr": 7737,
      "gifted": 7738,
      "Cole": 7739,
      "animated": 7740,
      "ZZZZ": 7741,
      "Vista": 7742,
      "mattress": 7743,
      "Action": 7744,
      "dare": 7745,
      "oz": 7746,
      "storm": 7747,
      "antenna": 7748,
      "inda": 7749,
      "funk": 7750,
      "Beyond": 7751,
      "creatures": 7752,
      "liner": 7753,
      "conditions": 7754,
      "psychological": 7755,
      "plausible": 7756,
      "Half": 7757,
      "pas": 7758,
      "rors": 7759,
      "revol": 7760,
      "alter": 7761,
      "mob": 7762,
      "ilty": 7763,
      "Ther": 7764,
      "dia": 7765,
      "blan": 7766,
      "sites": 7767,
      "gym": 7768,
      "TERRIBLE": 7769,
      "Universal": 7770,
      "Na": 7771,
      "Pitt": 7772,
      "Zen": 7773,
      "threat": 7774,
      "iner": 7775,
      "charts": 7776,
      "opposed": 7777,
      "opposite": 7778,
      "essence": 7779,
      "span": 7780,
      "wondered": 7781,
      "handling": 7782,
      "Movies": 7783,
      "jeans": 7784,
      "decis": 7785,
      "primarily": 7786,
      "relief": 7787,
      "fashioned": 7788,
      "stains": 7789,
      "repeatedly": 7790,
      "devoted": 7791,
      "Civil": 7792,
      "Catherine": 7793,
      "Mont": 7794,
      "ipod": 7795,
      "whim": 7796,
      "internal": 7797,
      "gia": 7798,
      "1950": 7799,
      "sys": 7800,
      "Proble": 7801,
      "EXT": 7802,
      "welcome": 7803,
      "Santa": 7804,
      "heavily": 7805,
      "symbol": 7806,
      "COULD": 7807,
      "Fans": 7808,
      "Touch": 7809,
      "native": 7810,
      "pically": 7811,
      "onna": 7812,
      "isers": 7813,
      "oft": 7814,
      "chris": 7815,
      "aret": 7816,
      "usage": 7817,
      "nels": 7818,
      "newsp": 7819,
      "lighting": 7820,
      "unky": 7821,
      "belongs": 7822,
      "orchestr": 7823,
      "Imagine": 7824,
      "kn": 7825,
      "conserv": 7826,
      "haha": 7827,
      "Whatever": 7828,
      "angers": 7829,
      "THESE": 7830,
      "2010": 7831,
      "VERS": 7832,
      "Holy": 7833,
      "desert": 7834,
      "Dum": 7835,
      "FL": 7836,
      "Floyd": 7837,
      "Ker": 7838,
      "Oasis": 7839,
      "mut": 7840,
      "uous": 7841,
      "highlights": 7842,
      "logue": 7843,
      "engross": 7844,
      "nails": 7845,
      "container": 7846,
      "installing": 7847,
      "imaginative": 7848,
      "accounts": 7849,
      "consistently": 7850,
      "NEED": 7851,
      "Golden": 7852,
      "Silver": 7853,
      "powder": 7854,
      "Kurt": 7855,
      "iser": 7856,
      "stun": 7857,
      "exha": 7858,
      "steam": 7859,
      "ASH": 7860,
      "Army": 7861,
      "countries": 7862,
      "Matt": 7863,
      "itly": 7864,
      "selections": 7865,
      "choo": 7866,
      "tims": 7867,
      "seeking": 7868,
      "Hemingway": 7869,
      "ATED": 7870,
      "sentiment": 7871,
      "ITT": 7872,
      "frightening": 7873,
      "Fortun": 7874,
      "Hunt": 7875,
      "WA": 7876,
      "rial": 7877,
      "weigh": 7878,
      "likeable": 7879,
      "fron": 7880,
      "grasp": 7881,
      "watches": 7882,
      "definition": 7883,
      "maintain": 7884,
      "shake": 7885,
      "Clint": 7886,
      "magazines": 7887,
      "brace": 7888,
      "evident": 7889,
      "criticism": 7890,
      "DTS": 7891,
      "Ess": 7892,
      "Evil": 7893,
      "Glad": 7894,
      "Kin": 7895,
      "Tried": 7896,
      "nox": 7897,
      "intrigue": 7898,
      "inspirational": 7899,
      "Franken": 7900,
      "WELL": 7901,
      "innocent": 7902,
      "comedies": 7903,
      "encountered": 7904,
      "quirky": 7905,
      "navig": 7906,
      "likable": 7907,
      "Cover": 7908,
      "stim": 7909,
      "mellow": 7910,
      "buyer": 7911,
      "ferent": 7912,
      "RED": 7913,
      "caring": 7914,
      "chocolate": 7915,
      "transmit": 7916,
      "walls": 7917,
      "judice": 7918,
      "assembly": 7919,
      "Les": 7920,
      "erotic": 7921,
      "anime": 7922,
      "chuck": 7923,
      "precise": 7924,
      "succeed": 7925,
      "Broad": 7926,
      "delighted": 7927,
      "paragraphs": 7928,
      "Test": 7929,
      "fed": 7930,
      "ja": 7931,
      "pans": 7932,
      "endo": 7933,
      "arc": 7934,
      "dishes": 7935,
      "Third": 7936,
      "Stupid": 7937,
      "originals": 7938,
      "writings": 7939,
      "immense": 7940,
      "meeting": 7941,
      "selected": 7942,
      "annoyed": 7943,
      "Cham": 7944,
      "Nas": 7945,
      "National": 7946,
      "dup": 7947,
      "torn": 7948,
      "yre": 7949,
      "ira": 7950,
      "quis": 7951,
      "downright": 7952,
      "Until": 7953,
      "closure": 7954,
      "breast": 7955,
      "visited": 7956,
      "ladies": 7957,
      "prime": 7958,
      "Canada": 7959,
      "Christians": 7960,
      "Dri": 7961,
      "Mountain": 7962,
      "Pep": 7963,
      "WATCH": 7964,
      "dent": 7965,
      "mile": 7966,
      "nostal": 7967,
      "outrage": 7968,
      "funky": 7969,
      "Stones": 7970,
      "factual": 7971,
      "scream": 7972,
      "dolls": 7973,
      "mmm": 7974,
      "traveling": 7975,
      "reached": 7976,
      "bulky": 7977,
      "Break": 7978,
      "official": 7979,
      "Harrison": 7980,
      "paganda": 7981,
      "Vietnam": 7982,
      "Rid": 7983,
      "SM": 7984,
      "Shel": 7985,
      "wack": 7986,
      "aly": 7987,
      "ategy": 7988,
      "overcome": 7989,
      "superficial": 7990,
      "elev": 7991,
      "pulls": 7992,
      "pushing": 7993,
      "educated": 7994,
      "painting": 7995,
      "Flor": 7996,
      "jumps": 7997,
      "han": 7998,
      "mies": 7999,
      "therm": 8000,
      "socks": 8001,
      "worried": 8002,
      "poster": 8003,
      "goof": 8004,
      "essays": 8005,
      "blical": 8006,
      "guard": 8007,
      "causing": 8008,
      "plugs": 8009,
      "advertise": 8010,
      "emotionally": 8011,
      "assigned": 8012,
      "poetic": 8013,
      "Vampire": 8014,
      "exhaust": 8015,
      "Eye": 8016,
      "sting": 8017,
      "stack": 8018,
      "uninspired": 8019,
      "twins": 8020,
      "Reach": 8021,
      "carried": 8022,
      "mixes": 8023,
      "slower": 8024,
      "hhhh": 8025,
      "victims": 8026,
      "Truth": 8027,
      "GAME": 8028,
      "Ring": 8029,
      "gate": 8030,
      "pour": 8031,
      "wave": 8032,
      "isto": 8033,
      "butt": 8034,
      "dial": 8035,
      "couldnt": 8036,
      "Received": 8037,
      "central": 8038,
      "headset": 8039,
      "Today": 8040,
      "chore": 8041,
      "graphical": 8042,
      "liberal": 8043,
      "poignant": 8044,
      "Ugh": 8045,
      "cdo": 8046,
      "mins": 8047,
      "lastic": 8048,
      "developing": 8049,
      "circumstances": 8050,
      "Patterson": 8051,
      "SF": 8052,
      "bri": 8053,
      "gather": 8054,
      "ique": 8055,
      "mug": 8056,
      "atics": 8057,
      "alco": 8058,
      "trance": 8059,
      "believed": 8060,
      "granddaughter": 8061,
      "switched": 8062,
      "System": 8063,
      "remotely": 8064,
      "Phil": 8065,
      "suffered": 8066,
      "DISAP": 8067,
      "WRONG": 8068,
      "pillow": 8069,
      "department": 8070,
      "Holmes": 8071,
      "guarantee": 8072,
      "Dust": 8073,
      "FM": 8074,
      "LONG": 8075,
      "bree": 8076,
      "tan": 8077,
      "whis": 8078,
      "meal": 8079,
      "exposed": 8080,
      "ensity": 8081,
      "truely": 8082,
      "birds": 8083,
      "publishers": 8084,
      "EXCELL": 8085,
      "Dist": 8086,
      "UGH": 8087,
      "reminis": 8088,
      "rehash": 8089,
      "marry": 8090,
      "logist": 8091,
      "paralle": 8092,
      "renting": 8093,
      "providing": 8094,
      "instructor": 8095,
      "believably": 8096,
      "organization": 8097,
      "recognized": 8098,
      "cliches": 8099,
      "desperate": 8100,
      "Hay": 8101,
      "Lam": 8102,
      "dating": 8103,
      "las": 8104,
      "mers": 8105,
      "toilet": 8106,
      "chip": 8107,
      "keeper": 8108,
      "cancer": 8109,
      "sett": 8110,
      ".....\"}": 8111,
      "fortune": 8112,
      "drops": 8113,
      "Dreams": 8114,
      "honor": 8115,
      "Travel": 8116,
      "eagerly": 8117,
      "FF": 8118,
      "MADE": 8119,
      "Rub": 8120,
      "Wol": 8121,
      "hitting": 8122,
      "convey": 8123,
      "solos": 8124,
      "irts": 8125,
      "excl": 8126,
      "proven": 8127,
      "suicide": 8128,
      "commit": 8129,
      "awsome": 8130,
      "Anderson": 8131,
      "Mean": 8132,
      "astern": 8133,
      "dissapointing": 8134,
      "jumping": 8135,
      "Whether": 8136,
      "sloppy": 8137,
      "\"(": 8138,
      "700": 8139,
      "Cher": 8140,
      "Oper": 8141,
      "WERE": 8142,
      "bun": 8143,
      "pink": 8144,
      "coherent": 8145,
      "spar": 8146,
      "raise": 8147,
      "Begin": 8148,
      "addlers": 8149,
      "Log": 8150,
      "??\",": 8151,
      "cleaned": 8152,
      "grammar": 8153,
      "admir": 8154,
      "COM": 8155,
      "spoken": 8156,
      "darn": 8157,
      "December": 8158,
      "sophisticated": 8159,
      "Gib": 8160,
      "Pony": 8161,
      "Spar": 8162,
      "Vie": 8163,
      "cs": 8164,
      "cum": 8165,
      "layou": 8166,
      "moir": 8167,
      "myth": 8168,
      "goal": 8169,
      "storytelling": 8170,
      "directors": 8171,
      "Warning": 8172,
      "fighter": 8173,
      "presence": 8174,
      "Jerry": 8175,
      "Patricia": 8176,
      "Div": 8177,
      "Grace": 8178,
      "gad": 8179,
      "rell": 8180,
      "alarm": 8181,
      "Inform": 8182,
      "downhill": 8183,
      "fancy": 8184,
      "breed": 8185,
      "Granted": 8186,
      "staying": 8187,
      "illustrated": 8188,
      "catalog": 8189,
      "emplo": 8190,
      "Hello": 8191,
      "COR": 8192,
      "Liter": 8193,
      "rin": 8194,
      "ctors": 8195,
      "happiness": 8196,
      "jobs": 8197,
      "increase": 8198,
      "Princess": 8199,
      "Quest": 8200,
      "Herbert": 8201,
      "darker": 8202,
      "approx": 8203,
      "admire": 8204,
      "spoil": 8205,
      "Paris": 8206,
      "brutal": 8207,
      "Fortunately": 8208,
      "batch": 8209,
      "cus": 8210,
      "swear": 8211,
      "ando": 8212,
      "ambi": 8213,
      "igan": 8214,
      "producing": 8215,
      "plans": 8216,
      "spelling": 8217,
      "trips": 8218,
      "Devil": 8219,
      "pressing": 8220,
      "drawing": 8221,
      "appreciation": 8222,
      "psych": 8223,
      "Eagles": 8224,
      "Mil": 8225,
      "MON": 8226,
      "Suck": 8227,
      "cave": 8228,
      "rash": 8229,
      "xic": 8230,
      "idel": 8231,
      "wrist": 8232,
      "overpriced": 8233,
      "Reeves": 8234,
      "cheer": 8235,
      "OUGHT": 8236,
      "applied": 8237,
      "substanti": 8238,
      "jumped": 8239,
      "pilot": 8240,
      "Entertaining": 8241,
      "Fu": 8242,
      "gau": 8243,
      "eral": 8244,
      "abandon": 8245,
      "myst": 8246,
      "wears": 8247,
      "sav": 8248,
      "Secret": 8249,
      "dissapointment": 8250,
      "Daniel": 8251,
      "squee": 8252,
      "chemical": 8253,
      "Kim": 8254,
      "LOOK": 8255,
      "poem": 8256,
      "sacri": 8257,
      "seek": 8258,
      "owners": 8259,
      "server": 8260,
      "happily": 8261,
      "centered": 8262,
      "paired": 8263,
      "carries": 8264,
      "headed": 8265,
      "anecdo": 8266,
      "Johnson": 8267,
      "sticky": 8268,
      "Fantasia": 8269,
      "vitam": 8270,
      "Sarah": 8271,
      "Australia": 8272,
      "shelves": 8273,
      "marvelous": 8274,
      "Find": 8275,
      "ffin": 8276,
      "goo": 8277,
      "ladi": 8278,
      "melt": 8279,
      "dem": 8280,
      "agan": 8281,
      "releasing": 8282,
      "professor": 8283,
      "portrays": 8284,
      "squir": 8285,
      "represents": 8286,
      "distribut": 8287,
      "Cir": 8288,
      "Eve": 8289,
      "hers": 8290,
      "ration": 8291,
      "wand": 8292,
      "incomplete": 8293,
      "rear": 8294,
      "eday": 8295,
      "defect": 8296,
      "owns": 8297,
      "izations": 8298,
      "struck": 8299,
      "ANG": 8300,
      "crib": 8301,
      "attered": 8302,
      "1980": 8303,
      "cared": 8304,
      "atsby": 8305,
      "Cost": 8306,
      "Simon": 8307,
      "growth": 8308,
      "Emma": 8309,
      "execution": 8310,
      "principles": 8311,
      "Emp": 8312,
      "Jay": 8313,
      "thread": 8314,
      "anic": 8315,
      "novice": 8316,
      "spite": 8317,
      "partner": 8318,
      "Anth": 8319,
      "mindless": 8320,
      "concern": 8321,
      "Mormon": 8322,
      "faced": 8323,
      "Legend": 8324,
      "skeptical": 8325,
      "August": 8326,
      "Several": 8327,
      "Page": 8328,
      "tang": 8329,
      "yle": 8330,
      "inaccurate": 8331,
      "spread": 8332,
      "crude": 8333,
      "cordless": 8334,
      "collections": 8335,
      "porn": 8336,
      "Tivo": 8337,
      "precious": 8338,
      "painfully": 8339,
      "Feel": 8340,
      "AWAY": 8341,
      "massive": 8342,
      "pattern": 8343,
      "Consider": 8344,
      "President": 8345,
      "Mexico": 8346,
      "Hunter": 8347,
      "overwhelming": 8348,
      "Virgin": 8349,
      "Ball": 8350,
      "Mi": 8351,
      "PG": 8352,
      "Sense": 8353,
      "SAY": 8354,
      "bust": 8355,
      "ody": 8356,
      "sket": 8357,
      "onge": 8358,
      "tied": 8359,
      "foundation": 8360,
      "Diss": 8361,
      "attempting": 8362,
      "snapped": 8363,
      "Guess": 8364,
      "domin": 8365,
      "Saturday": 8366,
      "Oxo": 8367,
      "Certain": 8368,
      "RA": 8369,
      "bop": 8370,
      "nical": 8371,
      "encies": 8372,
      "moist": 8373,
      "elic": 8374,
      "coverage": 8375,
      "begining": 8376,
      "Coll": 8377,
      "south": 8378,
      "sooner": 8379,
      "Upon": 8380,
      "Design": 8381,
      "dedicated": 8382,
      "transport": 8383,
      "Planet": 8384,
      "Century": 8385,
      "Jessica": 8386,
      "decisions": 8387,
      "EXCELLENT": 8388,
      "gins": 8389,
      "slap": 8390,
      "analog": 8391,
      "heating": 8392,
      "unes": 8393,
      "detract": 8394,
      "magin": 8395,
      "disks": 8396,
      "discount": 8397,
      "faithful": 8398,
      "chicken": 8399,
      "razor": 8400,
      "Count": 8401,
      "Fab": 8402,
      "Mars": 8403,
      "March": 8404,
      "RR": 8405,
      "fts": 8406,
      "glo": 8407,
      "ias": 8408,
      "enthr": 8409,
      "sacre": 8410,
      "pton": 8411,
      "gency": 8412,
      "packs": 8413,
      "uggies": 8414,
      "Vegas": 8415,
      "Ordered": 8416,
      "financial": 8417,
      "250": 8418,
      "AI": 8419,
      "RU": 8420,
      "poo": 8421,
      "wrench": 8422,
      "ington": 8423,
      "wealth": 8424,
      "implement": 8425,
      "grave": 8426,
      "clothing": 8427,
      "Bring": 8428,
      "shared": 8429,
      "Sean": 8430,
      "suggestion": 8431,
      "cuz": 8432,
      "alternate": 8433,
      "CAUSE": 8434,
      "academic": 8435,
      "liquid": 8436,
      "Along": 8437,
      "Cour": 8438,
      "Sed": 8439,
      "sar": 8440,
      "esque": 8441,
      "chase": 8442,
      "colored": 8443,
      "bodies": 8444,
      "reviewing": 8445,
      "wonders": 8446,
      "strategy": 8447,
      "Chuck": 8448,
      "Storm": 8449,
      "DOWN": 8450,
      "largely": 8451,
      "drawings": 8452,
      "osity": 8453,
      "rendition": 8454,
      "accomplished": 8455,
      "Brooks": 8456,
      "WARNING": 8457,
      "innovative": 8458,
      "!),": 8459,
      "bay": 8460,
      "revel": 8461,
      "labels": 8462,
      "mel": 8463,
      "urge": 8464,
      "apes": 8465,
      "mathem": 8466,
      "bog": 8467,
      "phony": 8468,
      "Heavy": 8469,
      "classroom": 8470,
      "ports": 8471,
      "Joan": 8472,
      "learns": 8473,
      "sorts": 8474,
      "drags": 8475,
      "orchestra": 8476,
      "Gard": 8477,
      "June": 8478,
      "TUR": 8479,
      "naked": 8480,
      "justify": 8481,
      "ette": 8482,
      "divor": 8483,
      "steal": 8484,
      "REVIEW": 8485,
      "pression": 8486,
      "Doc": 8487,
      "sticking": 8488,
      "Orwell": 8489,
      "signs": 8490,
      "GOT": 8491,
      "welve": 8492,
      "sync": 8493,
      "Sunday": 8494,
      "Battery": 8495,
      "Broadway": 8496,
      "Bus": 8497,
      "Were": 8498,
      "sne": 8499,
      "orph": 8500,
      "bey": 8501,
      "conduct": 8502,
      "spy": 8503,
      "listens": 8504,
      "satire": 8505,
      "counting": 8506,
      "LIFE": 8507,
      "comparing": 8508,
      "bootleg": 8509,
      "arguments": 8510,
      "rooms": 8511,
      "private": 8512,
      "chronic": 8513,
      "suffers": 8514,
      "CGI": 8515,
      "Egy": 8516,
      "ological": 8517,
      "thirty": 8518,
      "itar": 8519,
      "orial": 8520,
      "doz": 8521,
      "desc": 8522,
      "gues": 8523,
      "STER": 8524,
      "copied": 8525,
      "spoiled": 8526,
      "Terri": 8527,
      "challenges": 8528,
      "CLASS": 8529,
      "legendary": 8530,
      "Joyce": 8531,
      "glimpse": 8532,
      "abriel": 8533,
      "Away": 8534,
      "Korn": 8535,
      "TWO": 8536,
      "fers": 8537,
      "hung": 8538,
      "vas": 8539,
      "erness": 8540,
      "reset": 8541,
      "noir": 8542,
      "coast": 8543,
      "underrated": 8544,
      "martial": 8545,
      "definitive": 8546,
      "salt": 8547,
      "racing": 8548,
      "Delta": 8549,
      "assumed": 8550,
      "Usually": 8551,
      "&#": 8552,
      "Fal": 8553,
      "Key": 8554,
      "Shop": 8555,
      "lum": 8556,
      "rab": 8557,
      "isa": 8558,
      "rein": 8559,
      "represented": 8560,
      "lem": 8561,
      "unted": 8562,
      "outlet": 8563,
      "Aside": 8564,
      "horrid": 8565,
      "warmer": 8566,
      "powered": 8567,
      "generations": 8568,
      "supported": 8569,
      "connections": 8570,
      "locked": 8571,
      "Terry": 8572,
      "AWFUL": 8573,
      "Francis": 8574,
      "ET": 8575,
      "Gatsby": 8576,
      "resolved": 8577,
      "stitch": 8578,
      "exists": 8579,
      "agreed": 8580,
      "interface": 8581,
      "Weis": 8582,
      "monsters": 8583,
      "Words": 8584,
      "garlic": 8585,
      "hyped": 8586,
      "progressive": 8587,
      "Missing": 8588,
      "blowing": 8589,
      "Target": 8590,
      "Linksys": 8591,
      "Friends": 8592,
      "WONDER": 8593,
      "independent": 8594,
      "\"),": 8595,
      "Av": 8596,
      "Bi": 8597,
      "Pick": 8598,
      "rome": 8599,
      "wound": 8600,
      "ader": 8601,
      "saves": 8602,
      "scrap": 8603,
      "overlooked": 8604,
      "blat": 8605,
      "forest": 8606,
      "!!!!!!\",": 8607,
      "Been": 8608,
      "drunk": 8609,
      "194": 8610,
      "shorts": 8611,
      "Gray": 8612,
      "existence": 8613,
      "burg": 8614,
      "consumer": 8615,
      "Hitchcock": 8616,
      "Rachel": 8617,
      "65": 8618,
      "Bow": 8619,
      "Ele": 8620,
      "Port": 8621,
      "VCR": 8622,
      "shod": 8623,
      "wouldnt": 8624,
      "backup": 8625,
      "musically": 8626,
      "THEN": 8627,
      "Donald": 8628,
      "jewel": 8629,
      "Exam": 8630,
      "Canad": 8631,
      "cliff": 8632,
      "hammer": 8633,
      "HOT": 8634,
      "racist": 8635,
      "ladiator": 8636,
      "LCD": 8637,
      "LIST": 8638,
      "Pul": 8639,
      "isms": 8640,
      "agent": 8641,
      "whats": 8642,
      "uded": 8643,
      "regularly": 8644,
      "Nightmare": 8645,
      "bloody": 8646,
      "reveal": 8647,
      "assembled": 8648,
      "puppy": 8649,
      "Linux": 8650,
      "Luckily": 8651,
      "Larry": 8652,
      "Alien": 8653,
      "luster": 8654,
      "rang": 8655,
      "lime": 8656,
      "perman": 8657,
      "strateg": 8658,
      "completed": 8659,
      "LES": 8660,
      "schools": 8661,
      "2009": 8662,
      "identical": 8663,
      "honesty": 8664,
      "successfully": 8665,
      "Barbar": 8666,
      "soulful": 8667,
      "ibilities": 8668,
      "ignored": 8669,
      "conversations": 8670,
      "DISAPPOINT": 8671,
      "34": 8672,
      "Ef": 8673,
      "gig": 8674,
      "whining": 8675,
      "combo": 8676,
      "displayed": 8677,
      "cia": 8678,
      "cheated": 8679,
      "Bell": 8680,
      "embar": 8681,
      "capacity": 8682,
      "orders": 8683,
      "passes": 8684,
      "messed": 8685,
      "depression": 8686,
      "passionate": 8687,
      "bubble": 8688,
      "Op": 8689,
      "Pain": 8690,
      "bian": 8691,
      "cure": 8692,
      "hates": 8693,
      "horses": 8694,
      "mun": 8695,
      "sincere": 8696,
      "erg": 8697,
      "output": 8698,
      "deck": 8699,
      "traction": 8700,
      "propaganda": 8701,
      "arded": 8702,
      "orton": 8703,
      "explos": 8704,
      "wolf": 8705,
      "historic": 8706,
      "depressed": 8707,
      "Flash": 8708,
      "thousand": 8709,
      "itizen": 8710,
      "FILM": 8711,
      "fundamental": 8712,
      "Bor": 8713,
      "Pil": 8714,
      "Us": 8715,
      "cence": 8716,
      "ox": 8717,
      "army": 8718,
      "Mystery": 8719,
      "Beast": 8720,
      "logies": 8721,
      "countless": 8722,
      "draws": 8723,
      "feeding": 8724,
      "Helen": 8725,
      "surrounding": 8726,
      "elementary": 8727,
      "Romeo": 8728,
      "Hur": 8729,
      "Ja": 8730,
      "OLD": 8731,
      "fate": 8732,
      "gag": 8733,
      "lou": 8734,
      "oved": 8735,
      "ule": 8736,
      "extension": 8737,
      "Perry": 8738,
      "sharing": 8739,
      "influenced": 8740,
      "smoking": 8741,
      "AFTER": 8742,
      "BA": 8743,
      "Gabriel": 8744,
      "LF": 8745,
      "Si": 8746,
      "evolution": 8747,
      "ranks": 8748,
      "tion": 8749,
      "retail": 8750,
      "idents": 8751,
      "preview": 8752,
      "glued": 8753,
      "potato": 8754,
      "dvds": 8755,
      "meaningless": 8756,
      "Auel": 8757,
      "revealed": 8758,
      "flawless": 8759,
      "villain": 8760,
      "STARS": 8761,
      "associated": 8762,
      "Dawn": 8763,
      "SING": 8764,
      "hal": 8765,
      "rous": 8766,
      "vable": 8767,
      "wagon": 8768,
      "contrad": 8769,
      "chart": 8770,
      "lder": 8771,
      "popped": 8772,
      "shr": 8773,
      "aston": 8774,
      "whoever": 8775,
      "Than": 8776,
      "este": 8777,
      "Incredible": 8778,
      "makeup": 8779,
      "readings": 8780,
      "Weak": 8781,
      "ruins": 8782,
      "curi": 8783,
      "boredom": 8784,
      "leaked": 8785,
      "sympathetic": 8786,
      "Strange": 8787,
      "kicks": 8788,
      "Parker": 8789,
      "Lynch": 8790,
      "Ayla": 8791,
      "Anthony": 8792,
      "HARD": 8793,
      "Kane": 8794,
      "echo": 8795,
      "gum": 8796,
      "yah": 8797,
      "theories": 8798,
      "beloved": 8799,
      "verage": 8800,
      "unreadable": 8801,
      "riot": 8802,
      "pockets": 8803,
      "19th": 8804,
      "headache": 8805,
      "2008": 8806,
      "rett": 8807,
      "confidence": 8808,
      "hyster": 8809,
      "bottles": 8810,
      "isingly": 8811,
      "introduce": 8812,
      "profession": 8813,
      "oooooooo": 8814,
      "Lawrence": 8815,
      "newspaper": 8816,
      "Clean": 8817,
      "DES": 8818,
      "Jr": 8819,
      "Mus": 8820,
      "MAT": 8821,
      "Plot": 8822,
      "conce": 8823,
      "secrets": 8824,
      "gems": 8825,
      "dude": 8826,
      "olini": 8827,
      "Myers": 8828,
      "Roger": 8829,
      "shipment": 8830,
      "apartment": 8831,
      "RIP": 8832,
      "cousin": 8833,
      "Gift": 8834,
      "Mouse": 8835,
      "Wire": 8836,
      "gt": 8837,
      "ocean": 8838,
      "icon": 8839,
      "lidays": 8840,
      "poser": 8841,
      "plates": 8842,
      "faction": 8843,
      "subsequ": 8844,
      "guitarist": 8845,
      "HAPP": 8846,
      "complaining": 8847,
      "remaining": 8848,
      "nephew": 8849,
      "dozens": 8850,
      "Blan": 8851,
      "EM": 8852,
      "Sab": 8853,
      "YES": 8854,
      "Zero": 8855,
      "bond": 8856,
      "gall": 8857,
      "hence": 8858,
      "rev": 8859,
      "oured": 8860,
      "altogether": 8861,
      "urban": 8862,
      "decl": 8863,
      "disease": 8864,
      "suited": 8865,
      "izz": 8866,
      "straps": 8867,
      "Concer": 8868,
      "Shir": 8869,
      "Carlos": 8870,
      "southern": 8871,
      "Collect": 8872,
      "July": 8873,
      "Writing": 8874,
      "employ": 8875,
      "thermometer": 8876,
      "38": 8877,
      "Fitz": 8878,
      "Hits": 8879,
      "JUNK": 8880,
      "PH": 8881,
      "bom": 8882,
      "root": 8883,
      "stir": 8884,
      "whist": 8885,
      "traps": 8886,
      "aught": 8887,
      "downside": 8888,
      "collabor": 8889,
      "trigger": 8890,
      "Deli": 8891,
      "Boston": 8892,
      "mastered": 8893,
      "Spice": 8894,
      "universal": 8895,
      "pencil": 8896,
      "flows": 8897,
      "enemy": 8898,
      "patient": 8899,
      "pounds": 8900,
      "layout": 8901,
      "Buff": 8902,
      "Brave": 8903,
      "Halo": 8904,
      "Ven": 8905,
      "rates": 8906,
      "toes": 8907,
      "agno": 8908,
      "diverse": 8909,
      "ortal": 8910,
      "purchases": 8911,
      "walks": 8912,
      "preferred": 8913,
      "hesitate": 8914,
      "Player": 8915,
      "AVO": 8916,
      "cartoons": 8917,
      "musicianship": 8918,
      "solutions": 8919,
      "Creative": 8920,
      "determined": 8921,
      "Motor": 8922,
      "Spring": 8923,
      "Coffee": 8924,
      "Ev": 8925,
      "RY": 8926,
      "TY": 8927,
      "tut": 8928,
      "bedr": 8929,
      "booklet": 8930,
      "kel": 8931,
      "enda": 8932,
      "typically": 8933,
      "versat": 8934,
      "closing": 8935,
      "cameras": 8936,
      "suggests": 8937,
      "Spend": 8938,
      "personalities": 8939,
      "channels": 8940,
      "MAKE": 8941,
      "existing": 8942,
      "adore": 8943,
      "Blake": 8944,
      "Characters": 8945,
      "weapons": 8946,
      "obscure": 8947,
      "120": 8948,
      "Bag": 8949,
      "Battle": 8950,
      "Curt": 8951,
      "Fly": 8952,
      "Mess": 8953,
      "ingu": 8954,
      "pros": 8955,
      "grind": 8956,
      "twin": 8957,
      "international": 8958,
      "stellar": 8959,
      "formed": 8960,
      "insulting": 8961,
      "characterization": 8962,
      "Chronic": 8963,
      "Allen": 8964,
      "unior": 8965,
      "builds": 8966,
      "brilliance": 8967,
      "combines": 8968,
      "vocative": 8969,
      "minimum": 8970,
      "Harris": 8971,
      "swim": 8972,
      "Reacher": 8973,
      "Line": 8974,
      "Wi": 8975,
      "blast": 8976,
      "hunting": 8977,
      "thic": 8978,
      "infl": 8979,
      "itter": 8980,
      "ara": 8981,
      "wid": 8982,
      "urb": 8983,
      "earch": 8984,
      "foam": 8985,
      "suction": 8986,
      "lesser": 8987,
      "supplement": 8988,
      "ORT": 8989,
      "1970": 8990,
      "ARY": 8991,
      "sellers": 8992,
      "mixture": 8993,
      "flav": 8994,
      "nonetheless": 8995,
      "Blade": 8996,
      "mildly": 8997,
      "flexible": 8998,
      "phenomenal": 8999,
      "compassion": 9000,
      "\"-": 9001,
      "Budd": 9002,
      "ji": 9003,
      "laser": 9004,
      "pampers": 9005,
      "stol": 9006,
      "adise": 9007,
      "triumph": 9008,
      "STORY": 9009,
      "obnox": 9010,
      "odor": 9011,
      "childish": 9012,
      "Los": 9013,
      "grandmother": 9014,
      "Classics": 9015,
      "compelled": 9016,
      "buds": 9017,
      "matched": 9018,
      "GOD": 9019,
      "operation": 9020,
      "Bobby": 9021,
      "visuals": 9022,
      "groove": 9023,
      "Crowe": 9024,
      "Opr": 9025,
      "Using": 9026,
      "slim": 9027,
      "rem": 9028,
      "labe": 9029,
      "adorable": 9030,
      "robot": 9031,
      "shark": 9032,
      "join": 9033,
      "manship": 9034,
      "RECOMM": 9035,
      "Beck": 9036,
      "Moder": 9037,
      "atures": 9038,
      "LET": 9039,
      "wishing": 9040,
      "Support": 9041,
      "matches": 9042,
      "translated": 9043,
      "intrigued": 9044,
      "Sandra": 9045,
      "Sandler": 9046,
      "Italy": 9047,
      "definetly": 9048,
      "activities": 9049,
      "rescue": 9050,
      "fragile": 9051,
      "Ang": 9052,
      "MANY": 9053,
      "lord": 9054,
      "retire": 9055,
      "stair": 9056,
      "pee": 9057,
      "hase": 9058,
      "astound": 9059,
      "dual": 9060,
      "Whit": 9061,
      "aches": 9062,
      "merit": 9063,
      "Bee": 9064,
      "Decent": 9065,
      "worlds": 9066,
      "2011": 9067,
      "sells": 9068,
      "controvers": 9069,
      "WHERE": 9070,
      "refused": 9071,
      "reflection": 9072,
      "Paolini": 9073,
      "tricks": 9074,
      "applications": 9075,
      "Jaws": 9076,
      "Ku": 9077,
      "Rip": 9078,
      "bend": 9079,
      "dump": 9080,
      "yours": 9081,
      "magnet": 9082,
      "BECAUSE": 9083,
      "shiba": 9084,
      "heavier": 9085,
      "tossed": 9086,
      "criminal": 9087,
      "SOUND": 9088,
      "Teach": 9089,
      "fuss": 9090,
      "gery": 9091,
      "mush": 9092,
      "nap": 9093,
      "iture": 9094,
      "intensity": 9095,
      "backwards": 9096,
      "dys": 9097,
      "Body": 9098,
      "masterful": 9099,
      "Steel": 9100,
      "confusion": 9101,
      "Spider": 9102,
      "dropping": 9103,
      "operate": 9104,
      "Matthe": 9105,
      "Chain": 9106,
      "Glass": 9107,
      "Bradbury": 9108,
      "Different": 9109,
      "\"!": 9110,
      "lite": 9111,
      "stations": 9112,
      "rival": 9113,
      "plague": 9114,
      "acies": 9115,
      "resources": 9116,
      "Poss": 9117,
      "Isra": 9118,
      "ballad": 9119,
      "ungle": 9120,
      "brave": 9121,
      "ennis": 9122,
      "comparable": 9123,
      "influences": 9124,
      "physics": 9125,
      "crashes": 9126,
      "Given": 9127,
      "graduate": 9128,
      "Dian": 9129,
      "Lef": 9130,
      "Miles": 9131,
      "Ri": 9132,
      "doo": 9133,
      "mates": 9134,
      "recy": 9135,
      "arrog": 9136,
      "lamp": 9137,
      "heater": 9138,
      "activity": 9139,
      "mented": 9140,
      "chest": 9141,
      "insist": 9142,
      "listenable": 9143,
      "obtain": 9144,
      "understandable": 9145,
      "Thats": 9146,
      "gerald": 9147,
      "expense": 9148,
      "glory": 9149,
      "Pride": 9150,
      "performing": 9151,
      "incident": 9152,
      "reduced": 9153,
      "anticipation": 9154,
      "enlightening": 9155,
      "squirrel": 9156,
      "MEN": 9157,
      "SPE": 9158,
      "Tale": 9159,
      "UV": 9160,
      "ora": 9161,
      "het": 9162,
      "outdoor": 9163,
      "disgrace": 9164,
      "essay": 9165,
      "lowest": 9166,
      "teller": 9167,
      "brew": 9168,
      "mask": 9169,
      "Columb": 9170,
      "destro": 9171,
      "thesis": 9172,
      "Watching": 9173,
      "Basic": 9174,
      "environmental": 9175,
      "executed": 9176,
      "obsessed": 9177,
      "Psycho": 9178,
      "Florida": 9179,
      "FI": 9180,
      "Fascin": 9181,
      "Ig": 9182,
      "sang": 9183,
      "sorely": 9184,
      "mans": 9185,
      "meditation": 9186,
      "portrait": 9187,
      "cookies": 9188,
      "India": 9189,
      "Masterpiece": 9190,
      "chanting": 9191,
      "dynamic": 9192,
      "Oprah": 9193,
      "Apri": 9194,
      "Jen": 9195,
      "Karen": 9196,
      "Lim": 9197,
      "boun": 9198,
      "din": 9199,
      "betray": 9200,
      "memoir": 9201,
      "unusable": 9202,
      "loan": 9203,
      "inet": 9204,
      "grap": 9205,
      "overnight": 9206,
      "Inc": 9207,
      "ensible": 9208,
      "border": 9209,
      "State": 9210,
      "THEIR": 9211,
      "lands": 9212,
      "Arnold": 9213,
      "increasing": 9214,
      "Carp": 9215,
      "concerning": 9216,
      "TRY": 9217,
      "manufactured": 9218,
      "repetition": 9219,
      "effectively": 9220,
      "frequent": 9221,
      "philosophical": 9222,
      "Scarlet": 9223,
      "dissappointed": 9224,
      "grateful": 9225,
      "Sparks": 9226,
      "CLASSIC": 9227,
      "stolen": 9228,
      "RECOMMEND": 9229,
      "6th": 9230,
      "Camp": 9231,
      "KS": 9232,
      "PU": 9233,
      "hoo": 9234,
      "uk": 9235,
      "wich": 9236,
      "absolut": 9237,
      "tely": 9238,
      "getic": 9239,
      "ints": 9240,
      "spanish": 9241,
      "Compare": 9242,
      "Carter": 9243,
      "Edward": 9244,
      "rapper": 9245,
      "Final": 9246,
      "Nora": 9247,
      "durability": 9248,
      "juven": 9249,
      "automatically": 9250,
      "caution": 9251,
      "April": 9252,
      "85": 9253,
      "Hend": 9254,
      "Haven": 9255,
      "Nik": 9256,
      "Ow": 9257,
      "Por": 9258,
      "Ster": 9259,
      "Vel": 9260,
      "dun": 9261,
      "mountain": 9262,
      "orange": 9263,
      "atz": 9264,
      "beast": 9265,
      "beef": 9266,
      "iem": 9267,
      "fruit": 9268,
      "imum": 9269,
      "intu": 9270,
      "iesel": 9271,
      "distract": 9272,
      "bol": 9273,
      "acula": 9274,
      "produces": 9275,
      "restaur": 9276,
      "Pros": 9277,
      "Comedy": 9278,
      "arrival": 9279,
      "puzzles": 9280,
      "Addition": 9281,
      "enhanced": 9282,
      "convenience": 9283,
      "?).": 9284,
      "During": 9285,
      "Danger": 9286,
      "Ya": 9287,
      "Yo": 9288,
      "furn": 9289,
      "french": 9290,
      "mice": 9291,
      "sappy": 9292,
      "thumb": 9293,
      "seal": 9294,
      "seper": 9295,
      "outing": 9296,
      "Therefore": 9297,
      "Asian": 9298,
      "texts": 9299,
      "WORTH": 9300,
      "leaking": 9301,
      "fifth": 9302,
      "embarrassed": 9303,
      "microphone": 9304,
      "emphasis": 9305,
      "Company": 9306,
      "labeled": 9307,
      "cery": 9308,
      "ock": 9309,
      "ictive": 9310,
      "augh": 9311,
      "Thor": 9312,
      "cling": 9313,
      "buyers": 9314,
      "trackball": 9315,
      "Dec": 9316,
      "visiting": 9317,
      "planned": 9318,
      "Going": 9319,
      "rapid": 9320,
      "IGIN": 9321,
      "harm": 9322,
      "Broke": 9323,
      "performer": 9324,
      "slick": 9325,
      "naturally": 9326,
      "locations": 9327,
      "homes": 9328,
      "hurts": 9329,
      "grainy": 9330,
      "atrocious": 9331,
      "Certainly": 9332,
      "Cab": 9333,
      "Dull": 9334,
      "Fear": 9335,
      "Field": 9336,
      "Jar": 9337,
      "Jet": 9338,
      "font": 9339,
      "twelve": 9340,
      "vary": 9341,
      "input": 9342,
      "renew": 9343,
      "masters": 9344,
      "coaster": 9345,
      "spine": 9346,
      "Andy": 9347,
      "angles": 9348,
      "Bride": 9349,
      "screwed": 9350,
      "kettle": 9351,
      "confir": 9352,
      "litter": 9353,
      "COL": 9354,
      "complained": 9355,
      "zombies": 9356,
      "JOY": 9357,
      "editors": 9358,
      "SONGS": 9359,
      "Juliet": 9360,
      "vulgar": 9361,
      "medicine": 9362,
      "bedroom": 9363,
      "Gro": 9364,
      "KING": 9365,
      "Town": 9366,
      "Tree": 9367,
      "zoom": 9368,
      "thir": 9369,
      "devil": 9370,
      "Revolution": 9371,
      "IND": 9372,
      "trial": 9373,
      "Nobody": 9374,
      "BEFORE": 9375,
      "Arab": 9376,
      "Major": 9377,
      "LOVES": 9378,
      "Franklin": 9379,
      "adole": 9380,
      "Strong": 9381,
      "indicated": 9382,
      "session": 9383,
      "Fascinating": 9384,
      "GL": 9385,
      "Rest": 9386,
      "sided": 9387,
      "beit": 9388,
      "newest": 9389,
      "trane": 9390,
      "indu": 9391,
      "perf": 9392,
      "charges": 9393,
      "spice": 9394,
      "plants": 9395,
      "guides": 9396,
      "caly": 9397,
      "differently": 9398,
      "engage": 9399,
      "naive": 9400,
      "landscape": 9401,
      "designs": 9402,
      "languages": 9403,
      "pairs": 9404,
      "accurately": 9405,
      "cultures": 9406,
      "electronics": 9407,
      "chorus": 9408,
      "transmitter": 9409,
      "Cy": 9410,
      "PUR": 9411,
      "Self": 9412,
      "fy": 9413,
      "vig": 9414,
      "tier": 9415,
      "grav": 9416,
      "sufficient": 9417,
      "songwriter": 9418,
      "Into": 9419,
      "corrupt": 9420,
      "ERO": 9421,
      "mistaken": 9422,
      "handled": 9423,
      "carpet": 9424,
      "defined": 9425,
      "transition": 9426,
      "Post": 9427,
      "cookie": 9428,
      "occup": 9429,
      "summar": 9430,
      "Fantasy": 9431,
      "Enjoyable": 9432,
      "Langu": 9433,
      "Dolby": 9434,
      "Barbara": 9435,
      "Modern": 9436,
      ":\"": 9437,
      "Fact": 9438,
      "Han": 9439,
      "alpha": 9440,
      "sax": 9441,
      "percent": 9442,
      "shoulder": 9443,
      "excell": 9444,
      "believes": 9445,
      "ORIGIN": 9446,
      "generous": 9447,
      "walker": 9448,
      "Dracula": 9449,
      "spoon": 9450,
      "reccommend": 9451,
      "1998": 9452,
      "psychology": 9453,
      "objective": 9454,
      "--------": 9455,
      "Sir": 9456,
      "Tour": 9457,
      "mund": 9458,
      "nier": 9459,
      "sno": 9460,
      "bele": 9461,
      "heim": 9462,
      "ctu": 9463,
      "modif": 9464,
      "unacceptable": 9465,
      "neath": 9466,
      "compart": 9467,
      "wordy": 9468,
      "itech": 9469,
      "minus": 9470,
      "addle": 9471,
      "Joel": 9472,
      "Holiday": 9473,
      "grandchildren": 9474,
      "fills": 9475,
      "Laura": 9476,
      "flicks": 9477,
      "communication": 9478,
      "Murphy": 9479,
      "enthusiast": 9480,
      "convince": 9481,
      "Nicholas": 9482,
      "Toni": 9483,
      "Carrie": 9484,
      "TURN": 9485,
      "Canadian": 9486,
[...]
